{
  "version": "1.0",
  "truncation": null,
  "padding": null,
  "added_tokens": [
    {
      "id": 0,
      "content": "<|endoftext|>",
      "single_word": false,
      "lstrip": false,
      "rstrip": false,
      "normalized": false,
      "special": true
    },
    {
      "id": 1,
      "content": "<|im_start|>",
      "single_word": false,
      "lstrip": false,
      "rstrip": false,
      "normalized": false,
      "special": true
    },
    {
      "id": 2,
      "content": "<|im_end|>",
      "single_word": false,
      "lstrip": false,
      "rstrip": false,
      "normalized": false,
      "special": true
    },
    {
      "id": 3,
      "content": "<|pad|>",
      "single_word": false,
      "lstrip": false,
      "rstrip": false,
      "normalized": false,
      "special": true
    },
    {
      "id": 4,
      "content": "<|unk|>",
      "single_word": false,
      "lstrip": false,
      "rstrip": false,
      "normalized": false,
      "special": true
    }
  ],
  "normalizer": null,
  "pre_tokenizer": {
    "type": "Sequence",
    "pretokenizers": [
      {
        "type": "ByteLevel",
        "add_prefix_space": false,
        "trim_offsets": false,
        "use_regex": true
      }
    ]
  },
  "post_processor": {
    "type": "ByteLevel",
    "add_prefix_space": true,
    "trim_offsets": false,
    "use_regex": true
  },
  "decoder": {
    "type": "ByteLevel",
    "add_prefix_space": true,
    "trim_offsets": true,
    "use_regex": true
  },
  "model": {
    "type": "BPE",
    "dropout": null,
    "unk_token": "<|unk|>",
    "continuing_subword_prefix": null,
    "end_of_word_suffix": null,
    "fuse_unk": false,
    "byte_fallback": false,
    "ignore_merges": false,
    "vocab": {
      "<|endoftext|>": 0,
      "<|im_start|>": 1,
      "<|im_end|>": 2,
      "<|pad|>": 3,
      "<|unk|>": 4,
      "!": 5,
      "\"": 6,
      "#": 7,
      "$": 8,
      "%": 9,
      "&": 10,
      "'": 11,
      "(": 12,
      ")": 13,
      "*": 14,
      "+": 15,
      ",": 16,
      "-": 17,
      ".": 18,
      "/": 19,
      "0": 20,
      "1": 21,
      "2": 22,
      "3": 23,
      "4": 24,
      "5": 25,
      "6": 26,
      "7": 27,
      "8": 28,
      "9": 29,
      ":": 30,
      ";": 31,
      "<": 32,
      "=": 33,
      ">": 34,
      "?": 35,
      "@": 36,
      "A": 37,
      "B": 38,
      "C": 39,
      "D": 40,
      "E": 41,
      "F": 42,
      "G": 43,
      "H": 44,
      "I": 45,
      "J": 46,
      "K": 47,
      "L": 48,
      "M": 49,
      "N": 50,
      "O": 51,
      "P": 52,
      "Q": 53,
      "R": 54,
      "S": 55,
      "T": 56,
      "U": 57,
      "V": 58,
      "W": 59,
      "X": 60,
      "Y": 61,
      "Z": 62,
      "[": 63,
      "\\": 64,
      "]": 65,
      "^": 66,
      "_": 67,
      "`": 68,
      "a": 69,
      "b": 70,
      "c": 71,
      "d": 72,
      "e": 73,
      "f": 74,
      "g": 75,
      "h": 76,
      "i": 77,
      "j": 78,
      "k": 79,
      "l": 80,
      "m": 81,
      "n": 82,
      "o": 83,
      "p": 84,
      "q": 85,
      "r": 86,
      "s": 87,
      "t": 88,
      "u": 89,
      "v": 90,
      "w": 91,
      "x": 92,
      "y": 93,
      "z": 94,
      "{": 95,
      "|": 96,
      "}": 97,
      "~": 98,
      "¡": 99,
      "¢": 100,
      "£": 101,
      "¤": 102,
      "¥": 103,
      "¦": 104,
      "§": 105,
      "¨": 106,
      "©": 107,
      "ª": 108,
      "«": 109,
      "¬": 110,
      "®": 111,
      "¯": 112,
      "°": 113,
      "±": 114,
      "²": 115,
      "³": 116,
      "´": 117,
      "µ": 118,
      "¶": 119,
      "·": 120,
      "¸": 121,
      "¹": 122,
      "º": 123,
      "»": 124,
      "¼": 125,
      "½": 126,
      "¾": 127,
      "¿": 128,
      "À": 129,
      "Á": 130,
      "Â": 131,
      "Ã": 132,
      "Ä": 133,
      "Å": 134,
      "Æ": 135,
      "Ç": 136,
      "È": 137,
      "É": 138,
      "Ê": 139,
      "Ë": 140,
      "Ì": 141,
      "Í": 142,
      "Î": 143,
      "Ï": 144,
      "Ð": 145,
      "Ñ": 146,
      "Ò": 147,
      "Ó": 148,
      "Ô": 149,
      "Õ": 150,
      "Ö": 151,
      "×": 152,
      "Ø": 153,
      "Ù": 154,
      "Ú": 155,
      "Û": 156,
      "Ü": 157,
      "Ý": 158,
      "Þ": 159,
      "ß": 160,
      "à": 161,
      "á": 162,
      "â": 163,
      "ã": 164,
      "ä": 165,
      "å": 166,
      "æ": 167,
      "ç": 168,
      "è": 169,
      "é": 170,
      "ê": 171,
      "ë": 172,
      "ì": 173,
      "í": 174,
      "î": 175,
      "ï": 176,
      "ð": 177,
      "ñ": 178,
      "ò": 179,
      "ó": 180,
      "ô": 181,
      "õ": 182,
      "ö": 183,
      "÷": 184,
      "ø": 185,
      "ù": 186,
      "ú": 187,
      "û": 188,
      "ü": 189,
      "ý": 190,
      "þ": 191,
      "ÿ": 192,
      "Ā": 193,
      "ā": 194,
      "Ă": 195,
      "ă": 196,
      "Ą": 197,
      "ą": 198,
      "Ć": 199,
      "ć": 200,
      "Ĉ": 201,
      "ĉ": 202,
      "Ċ": 203,
      "ċ": 204,
      "Č": 205,
      "č": 206,
      "Ď": 207,
      "ď": 208,
      "Đ": 209,
      "đ": 210,
      "Ē": 211,
      "ē": 212,
      "Ĕ": 213,
      "ĕ": 214,
      "Ė": 215,
      "ė": 216,
      "Ę": 217,
      "ę": 218,
      "Ě": 219,
      "ě": 220,
      "Ĝ": 221,
      "ĝ": 222,
      "Ğ": 223,
      "ğ": 224,
      "Ġ": 225,
      "ġ": 226,
      "Ģ": 227,
      "ģ": 228,
      "Ĥ": 229,
      "ĥ": 230,
      "Ħ": 231,
      "ħ": 232,
      "Ĩ": 233,
      "ĩ": 234,
      "Ī": 235,
      "ī": 236,
      "Ĭ": 237,
      "ĭ": 238,
      "Į": 239,
      "į": 240,
      "İ": 241,
      "ı": 242,
      "Ĳ": 243,
      "ĳ": 244,
      "Ĵ": 245,
      "ĵ": 246,
      "Ķ": 247,
      "ķ": 248,
      "ĸ": 249,
      "Ĺ": 250,
      "ĺ": 251,
      "Ļ": 252,
      "ļ": 253,
      "Ľ": 254,
      "ľ": 255,
      "Ŀ": 256,
      "ŀ": 257,
      "Ł": 258,
      "ł": 259,
      "Ń": 260,
      "Ġt": 261,
      "Ġa": 262,
      "he": 263,
      "in": 264,
      "re": 265,
      "on": 266,
      "Ġthe": 267,
      "er": 268,
      "Ġs": 269,
      "at": 270,
      "Ġo": 271,
      "en": 272,
      "Ġc": 273,
      "ĠĠ": 274,
      "es": 275,
      "is": 276,
      "Ġw": 277,
      "nd": 278,
      "it": 279,
      "or": 280,
      "Ġp": 281,
      "al": 282,
      "ing": 283,
      "Ġf": 284,
      "an": 285,
      "ar": 286,
      "ou": 287,
      "Ġb": 288,
      "Ġof": 289,
      "ed": 290,
      "Ġm": 291,
      "Ġin": 292,
      "Ġto": 293,
      "Ġand": 294,
      "ion": 295,
      "Ġd": 296,
      "ic": 297,
      "le": 298,
      "st": 299,
      "ro": 300,
      "im": 301,
      "ent": 302,
      "as": 303,
      "ct": 304,
      "Ġh": 305,
      "Ġth": 306,
      "Ġe": 307,
      "Ġre": 308,
      "Ġn": 309,
      "ve": 310,
      "Ġl": 311,
      "il": 312,
      "om": 313,
      "et": 314,
      "ĠĠĠĠ": 315,
      "us": 316,
      "Ġis": 317,
      "id": 318,
      "ly": 319,
      "ce": 320,
      "Ġg": 321,
      "ation": 322,
      "ut": 323,
      "ol": 324,
      "ĠT": 325,
      "ra": 326,
      "Ġbe": 327,
      "ow": 328,
      "ot": 329,
      "ur": 330,
      "ch": 331,
      "Ġst": 332,
      "Ġy": 333,
      "Ġfor": 334,
      "ig": 335,
      "Ġthat": 336,
      "se": 337,
      "ĠI": 338,
      "Ġon": 339,
      "ver": 340,
      "am": 341,
      "ul": 342,
      "Ġyou": 343,
      "ir": 344,
      "Ġcon": 345,
      "ith": 346,
      "ist": 347,
      "ĠA": 348,
      "if": 349,
      "el": 350,
      "art": 351,
      "ay": 352,
      "un": 353,
      "Ġpro": 354,
      "|>": 355,
      "<|": 356,
      "Ġas": 357,
      "ĠS": 358,
      "Ġwith": 359,
      "um": 360,
      "Ġan": 361,
      "ad": 362,
      "her": 363,
      "Ġor": 364,
      "Ġit": 365,
      "ate": 366,
      "end": 367,
      "ers": 368,
      "ĠC": 369,
      "âĢ": 370,
      "od": 371,
      "Ġare": 372,
      "ge": 373,
      "Ġwh": 374,
      "Ġal": 375,
      "Ġex": 376,
      "Ġ1": 377,
      "ant": 378,
      "qu": 379,
      "ĠĠĠ": 380,
      "ri": 381,
      "Ġ(": 382,
      "ore": 383,
      "ess": 384,
      "ĠThe": 385,
      "ke": 386,
      "ld": 387,
      "ab": 388,
      "est": 389,
      "em": 390,
      "pe": 391,
      "Ġv": 392,
      "Ġwe": 393,
      "ity": 394,
      "Ġcom": 395,
      "th": 396,
      "Ġhe": 397,
      "res": 398,
      "Ġde": 399,
      "ment": 400,
      "Ġcan": 401,
      "ter": 402,
      "ive": 403,
      "ac": 404,
      "ĠM": 405,
      "ies": 406,
      "igh": 407,
      "Ġ\"": 408,
      "'s": 409,
      "Ġsu": 410,
      "ill": 411,
      "ĠP": 412,
      "Ġ=": 413,
      "ain": 414,
      "op": 415,
      "ction": 416,
      "Ġus": 417,
      "os": 418,
      "Ġch": 419,
      "Ġha": 420,
      "Ġne": 421,
      "iv": 422,
      "pp": 423,
      "rom": 424,
      "ĠB": 425,
      "Ġse": 426,
      "ĠH": 427,
      "nt": 428,
      "Ġby": 429,
      "pt": 430,
      "ass": 431,
      "Ġ2": 432,
      "Ġr": 433,
      "ort": 434,
      "oc": 435,
      "ud": 436,
      "Ġat": 437,
      "ial": 438,
      "ĠW": 439,
      "and": 440,
      "ould": 441,
      "ight": 442,
      "start": 443,
      "Ġfrom": 444,
      "all": 445,
      "Ġle": 446,
      "Ġsh": 447,
      "ure": 448,
      "ĠE": 449,
      "pl": 450,
      "Ġint": 451,
      "00": 452,
      "ĠD": 453,
      "ect": 454,
      "ĠĠĠĠĠĠĠĠ": 455,
      "Ġthis": 456,
      "ere": 457,
      "Ġnot": 458,
      "ĠF": 459,
      "Ġwas": 460,
      "Ġwor": 461,
      "Ġyour": 462,
      "ical": 463,
      "og": 464,
      "ĠR": 465,
      "out": 466,
      "Ġu": 467,
      "per": 468,
      "Ġhave": 469,
      "rou": 470,
      "The": 471,
      "Ġab": 472,
      "act": 473,
      "ine": 474,
      "our": 475,
      "ag": 476,
      "ust": 477,
      "Ġen": 478,
      "Ġim": 479,
      "age": 480,
      "ĠN": 481,
      "Ġtheir": 482,
      "ue": 483,
      "ast": 484,
      "ide": 485,
      "iz": 486,
      "ple": 487,
      "ich": 488,
      "gh": 489,
      "ult": 490,
      "ome": 491,
      "ak": 492,
      "Ġpl": 493,
      "ost": 494,
      "ations": 495,
      "ther": 496,
      "ĠL": 497,
      "ard": 498,
      "ind": 499,
      "ence": 500,
      "ĠG": 501,
      "Ġad": 502,
      "Ġres": 503,
      "du": 504,
      "ach": 505,
      "are": 506,
      "Ġwhe": 507,
      "ff": 508,
      "Ġmore": 509,
      "Ġk": 510,
      "ions": 511,
      "ell": 512,
      "Ġun": 513,
      "ance": 514,
      "int": 515,
      "ber": 516,
      "Ġcont": 517,
      "cl": 518,
      "cc": 519,
      "âĢĻ": 520,
      "ĠTh": 521,
      "Ġcl": 522,
      "orm": 523,
      "ame": 524,
      "ated": 525,
      "ous": 526,
      "able": 527,
      "Ġme": 528,
      "ans": 529,
      "Ġall": 530,
      "Ġwhich": 531,
      "\":": 532,
      "ĠĠĠĠĠĠĠ": 533,
      "Ġ-": 534,
      "ake": 535,
      "ie": 536,
      "Ġthey": 537,
      "so": 538,
      "ib": 539,
      "ip": 540,
      "Ġar": 541,
      "ire": 542,
      "vel": 543,
      "ack": 544,
      "Ġhas": 545,
      "ents": 546,
      "ep": 547,
      "ary": 548,
      "Ġwill": 549,
      "ĠO": 550,
      "Ġdis": 551,
      "Ġdo": 552,
      "ime": 553,
      ".<|": 554,
      "Ġj": 555,
      "Ġte": 556,
      "Ġper": 557,
      "ase": 558,
      "ru": 559,
      "ok": 560,
      "ong": 561,
      "ap": 562,
      "ile": 563,
      "Ġout": 564,
      "ĠJ": 565,
      "Ġbut": 566,
      "ory": 567,
      "ry": 568,
      "**": 569,
      "av": 570,
      "ĠâĢ": 571,
      "Ġ$": 572,
      "Ġ\\": 573,
      "ear": 574,
      "istant": 575,
      "reat": 576,
      "ount": 577,
      "ĠU": 578,
      "Ġother": 579,
      "Ġman": 580,
      "Ġalso": 581,
      "ign": 582,
      "Ġ3": 583,
      "ress": 584,
      "ice": 585,
      "Ġone": 586,
      "user": 587,
      "ual": 588,
      "Ġcomp": 589,
      "Ġqu": 590,
      "ĠIn": 591,
      "Ġsp": 592,
      "ces": 593,
      "Ġif": 594,
      "Ġev": 595,
      "ang": 596,
      "Ġabout": 597,
      "Ġnum": 598,
      "ike": 599,
      "ood": 600,
      "ĠThis": 601,
      "rit": 602,
      "low": 603,
      "form": 604,
      "Ġsc": 605,
      "assistant": 606,
      "ne": 607,
      "xt": 608,
      "ose": 609,
      "Ġhis": 610,
      "Ġimp": 611,
      "Ġapp": 612,
      "ia": 613,
      "ace": 614,
      "Ġ{": 615,
      "one": 616,
      "Ġfe": 617,
      "ition": 618,
      "yst": 619,
      "ail": 620,
      "Ġem": 621,
      "now": 622,
      "Ġup": 623,
      "ord": 624,
      "unction": 625,
      "ks": 626,
      "ors": 627,
      "``": 628,
      "Ġspe": 629,
      "ook": 630,
      "urn": 631,
      "Ġthem": 632,
      "ound": 633,
      "Ġro": 634,
      "Ġinto": 635,
      "ild": 636,
      "Ġ+": 637,
      "Ġso": 638,
      "ens": 639,
      "we": 640,
      "Ġpre": 641,
      "Ġtra": 642,
      "Ġwho": 643,
      "con": 644,
      "Ġits": 645,
      "Ġlike": 646,
      "very": 647,
      "Ġtr": 648,
      "nder": 649,
      "\",": 650,
      "Ġnew": 651,
      "Ġpart": 652,
      "ater": 653,
      "ub": 654,
      "ays": 655,
      "Ġcons": 656,
      "ph": 657,
      "fere": 658,
      "Ġbet": 659,
      "Ġcomm": 660,
      "Ġtime": 661,
      "ific": 662,
      "Ġwould": 663,
      "ĠIt": 664,
      "Ġwere": 665,
      "Ġsome": 666,
      ").": 667,
      "Ġpe": 668,
      "ates": 669,
      "Ġthere": 670,
      "ata": 671,
      "Ġstud": 672,
      "Ġind": 673,
      "Ġpr": 674,
      "Ġneed": 675,
      "ystem": 676,
      "Ġcould": 677,
      "Ġour": 678,
      "Ġover": 679,
      "Ġher": 680,
      "clud": 681,
      "ings": 682,
      "ys": 683,
      "Ġsuch": 684,
      "Ġfunction": 685,
      "ree": 686,
      "te": 687,
      "Ġpo": 688,
      "Ġthese": 689,
      "ite": 690,
      "ll": 691,
      "ject": 692,
      "ict": 693,
      "Ġacc": 694,
      "Ġrel": 695,
      "Ġhow": 696,
      "Ġunder": 697,
      "Ġtw": 698,
      "rough": 699,
      "Ġdes": 700,
      "aus": 701,
      "Ġknow": 702,
      "ish": 703,
      "Ġprov": 704,
      "irst": 705,
      "Ġdif": 706,
      "Ġwork": 707,
      "cre": 708,
      "olog": 709,
      "ĠSt": 710,
      "ient": 711,
      "Ġval": 712,
      "Ġthan": 713,
      "vers": 714,
      "ove": 715,
      "ef": 716,
      "ities": 717,
      "wn": 718,
      "Ġcol": 719,
      "Ġform": 720,
      "Ġ4": 721,
      "ative": 722,
      "Ġhel": 723,
      "Ġmay": 724,
      "les": 725,
      "ari": 726,
      "In": 727,
      "ĠY": 728,
      "ility": 729,
      "erm": 730,
      "ally": 731,
      "Ġra": 732,
      "ating": 733,
      "Ġwhen": 734,
      "ons": 735,
      "Ġgo": 736,
      "Ġret": 737,
      "Ġhelp": 738,
      "Ġinter": 739,
      "Ġbec": 740,
      "put": 741,
      "Ġ5": 742,
      "Ġ19": 743,
      "ough": 744,
      "Ġbeen": 745,
      "ob": 746,
      "ram": 747,
      "ople": 748,
      "Ġadd": 749,
      "Ġrec": 750,
      "sel": 751,
      "Ġmy": 752,
      "Ġany": 753,
      "ise": 754,
      "get": 755,
      "âĢĿ": 756,
      "Ġmake": 757,
      "ck": 758,
      "Ġeach": 759,
      "ath": 760,
      "Ġprodu": 761,
      "Ġcre": 762,
      "erv": 763,
      "ring": 764,
      "ption": 765,
      "ween": 766,
      "Ġnumber": 767,
      "ark": 768,
      "Ġyear": 769,
      "ĠK": 770,
      "Ġuse": 771,
      "Ġam": 772,
      "cri": 773,
      "Ġinclud": 774,
      ");": 775,
      "cess": 776,
      "Ġhad": 777,
      "Ġpos": 778,
      "Ġ'": 779,
      "ĠV": 780,
      "ments": 781,
      "Ġbetween": 782,
      "Ġag": 783,
      "Ġspec": 784,
      "Ġwhat": 785,
      "ft": 786,
      "ool": 787,
      "Ġwhere": 788,
      "Ġtwo": 789,
      "),": 790,
      "Ġpeople": 791,
      "Ġthrough": 792,
      "Ġeff": 793,
      "hat": 794,
      "Ġbl": 795,
      "ink": 796,
      "Ġph": 797,
      "Ġ`": 798,
      "ics": 799,
      "lic": 800,
      "Ġdata": 801,
      "eth": 802,
      "velop": 803,
      "Ġchar": 804,
      "ange": 805,
      "Ġfind": 806,
      "ty": 807,
      "ful": 808,
      "ĠĠĠĠĠĠĠĠĠĠĠ": 809,
      "ular": 810,
      "ds": 811,
      "ian": 812,
      "ning": 813,
      "lect": 814,
      "Ġdiffere": 815,
      "Ġsa": 816,
      "round": 817,
      "Ġpers": 818,
      "Ġgen": 819,
      "ren": 820,
      "oth": 821,
      "ov": 822,
      "row": 823,
      "Ġob": 824,
      "Ġfirst": 825,
      "Ġinv": 826,
      "Ġfol": 827,
      "Ġke": 828,
      "ced": 829,
      "Ġset": 830,
      "Ġexper": 831,
      "ble": 832,
      "pect": 833,
      "Ġrem": 834,
      "its": 835,
      "ible": 836,
      "Ġ0": 837,
      "ode": 838,
      "Ġass": 839,
      "ues": 840,
      "ĠCh": 841,
      "Ġused": 842,
      "Ġoff": 843,
      "ĠâĢľ": 844,
      "Ġ20": 845,
      "hed": 846,
      "Ġrep": 847,
      "ize": 848,
      "Ġreturn": 849,
      "Ġno": 850,
      "Ġact": 851,
      "Ġshould": 852,
      "..": 853,
      "Ġmost": 854,
      "ased": 855,
      "ert": 856,
      "Ġco": 857,
      "ential": 858,
      ".\"": 859,
      "ric": 860,
      "Ġexam": 861,
      "ife": 862,
      "ures": 863,
      "Ġusing": 864,
      "eg": 865,
      "als": 866,
      "oy": 867,
      "Ġdet": 868,
      "ience": 869,
      "ider": 870,
      "arch": 871,
      "hen": 872,
      "hes": 873,
      "Ġworld": 874,
      "Ġmany": 875,
      "ower": 876,
      "Ġget": 877,
      "ause": 878,
      "Ġmod": 879,
      "Ġonly": 880,
      "ution": 881,
      "Ġfollow": 882,
      "Ġsub": 883,
      "Ġexp": 884,
      "own": 885,
      "ten": 886,
      "Ġreg": 887,
      "aking": 888,
      "Ġdevelop": 889,
      "fter": 890,
      "ract": 891,
      "ting": 892,
      "Ġatt": 893,
      "Ġfl": 894,
      "ious": 895,
      "Ġsm": 896,
      "uring": 897,
      "Ġsystem": 898,
      "Ġvari": 899,
      "?<|": 900,
      "red": 901,
      "ily": 902,
      "cy": 903,
      "Ġshe": 904,
      "ational": 905,
      "Ġdist": 906,
      "fore": 907,
      "Ġsol": 908,
      "alth": 909,
      "Ġpoint": 910,
      "Ġexpl": 911,
      "ĠHe": 912,
      "Ġtrans": 913,
      "ew": 914,
      "Ġcall": 915,
      "Ġsim": 916,
      "Ġ6": 917,
      "ied": 918,
      "self": 919,
      "ond": 920,
      "Ġwell": 921,
      "mer": 922,
      "Ġcomple": 923,
      "Ġac": 924,
      "Ġstr": 925,
      "Ġdisc": 926,
      "Ġ**": 927,
      "000": 928,
      "pport": 929,
      "Ġcur": 930,
      "Ġinform": 931,
      "Ġdef": 932,
      "```": 933,
      "hip": 934,
      "Ġlist": 935,
      "ctions": 936,
      "Ġ*": 937,
      "Ġinf": 938,
      "):": 939,
      "ident": 940,
      "tern": 941,
      "Ġresult": 942,
      "ars": 943,
      "iss": 944,
      "Ġbu": 945,
      "ick": 946,
      "ever": 947,
      "chn": 948,
      "Ġsur": 949,
      "Ġcharact": 950,
      "Ġpres": 951,
      "Ġequ": 952,
      "Ġgiv": 953,
      "ax": 954,
      "Ġjust": 955,
      "'t": 956,
      "Ġty": 957,
      "Ġrequ": 958,
      "Ġappro": 959,
      "ness": 960,
      "Ġsign": 961,
      "ĠIf": 962,
      "Ġins": 963,
      "Ġthen": 964,
      "Ġread": 965,
      "gg": 966,
      "Ġinst": 967,
      "Ġperson": 968,
      "ĠĊ": 969,
      "Ġway": 970,
      "stand": 971,
      "ts": 972,
      "Ġdifferent": 973,
      "Th": 974,
      "Ġclass": 975,
      "other": 976,
      "erg": 977,
      "Ġhigh": 978,
      "ade": 979,
      "ex": 980,
      "eng": 981,
      "Ġfact": 982,
      "Ġcor": 983,
      "Ġhum": 984,
      "Ġx": 985,
      "Ġsee": 986,
      "Ġ}": 987,
      "Ġchild": 988,
      "old": 989,
      "ĠWe": 990,
      "Ġeven": 991,
      "ern": 992,
      "iqu": 993,
      "Ġwhile": 994,
      "rib": 995,
      "Ġprog": 996,
      "Ġart": 997,
      "Ġmain": 998,
      "ruct": 999,
      "led": 1000,
      "Ġ/": 1001,
      "Ġdec": 1002,
      "ature": 1003,
      "bers": 1004,
      "ĠHow": 1005,
      "Ġquest": 1006,
      "Ġgener": 1007,
      "ather": 1008,
      "arg": 1009,
      "Ġloc": 1010,
      "Ġlong": 1011,
      "ines": 1012,
      "ss": 1013,
      "ology": 1014,
      "Ġincre": 1015,
      "Ġmed": 1016,
      "ng": 1017,
      "gan": 1018,
      "Ġeffect": 1019,
      "Ġevery": 1020,
      "Ġown": 1021,
      "Ġlife": 1022,
      "ural": 1023,
      "cept": 1024,
      "Ġ[": 1025,
      "Ġback": 1026,
      "Ġent": 1027,
      "ward": 1028,
      "cul": 1029,
      "ps": 1030,
      "Ġcreate": 1031,
      "Ġsoc": 1032,
      "Ġtechn": 1033,
      "ĠUn": 1034,
      "Ġyears": 1035,
      "ered": 1036,
      "Ġresp": 1037,
      "ism": 1038,
      "Ġmight": 1039,
      "Ġwrit": 1040,
      "ins": 1041,
      "ality": 1042,
      "ify": 1043,
      "()": 1044,
      "elf": 1045,
      "Ġboth": 1046,
      "Ġstart": 1047,
      "Ġed": 1048,
      "ited": 1049,
      "Ġinformation": 1050,
      "Ġlead": 1051,
      "aw": 1052,
      "ases": 1053,
      "inal": 1054,
      "ants": 1055,
      "Ġmat": 1056,
      "--": 1057,
      "Ġref": 1058,
      "Ġdi": 1059,
      "Ġday": 1060,
      "riv": 1061,
      "Ġfound": 1062,
      "Ġmin": 1063,
      "**:": 1064,
      "ym": 1065,
      "Ġunderstand": 1066,
      "Ġ<": 1067,
      "Ġafter": 1068,
      "com": 1069,
      "rent": 1070,
      "ability": 1071,
      "Ġpat": 1072,
      "name": 1073,
      "Ġdep": 1074,
      "Ġimport": 1075,
      "Ġposs": 1076,
      "Ġgra": 1077,
      "ince": 1078,
      "Ġprocess": 1079,
      "iew": 1080,
      "Ġdoes": 1081,
      "Ġexample": 1082,
      "ense": 1083,
      "(\"": 1084,
      "Ġpar": 1085,
      "cial": 1086,
      "Ġ10": 1087,
      "ron": 1088,
      "Ġconsider": 1089,
      "ublic": 1090,
      "Ġcommun": 1091,
      "Ġext": 1092,
      "uc": 1093,
      "ices": 1094,
      "Ġwater": 1095,
      "Ġhand": 1096,
      "Ġend": 1097,
      "ically": 1098,
      ",\"": 1099,
      "ists": 1100,
      "Ġ8": 1101,
      "Ġcount": 1102,
      "ivid": 1103,
      "Ġrese": 1104,
      "Ġpol": 1105,
      "Ġbeing": 1106,
      "Ġlear": 1107,
      "uch": 1108,
      "Ġtake": 1109,
      "Ġ7": 1110,
      "Ġfam": 1111,
      "Ġvis": 1112,
      "imes": 1113,
      "yth": 1114,
      "akes": 1115,
      "Ġcal": 1116,
      "read": 1117,
      "Ġsk": 1118,
      "Ġself": 1119,
      "Ġche": 1120,
      "ork": 1121,
      "}}": 1122,
      "imate": 1123,
      "blem": 1124,
      "Ġcent": 1125,
      "any": 1126,
      "ĠFor": 1127,
      "val": 1128,
      "Ġhealth": 1129,
      "arm": 1130,
      "vent": 1131,
      "pr": 1132,
      "Ġhim": 1133,
      "Ġconst": 1134,
      "land": 1135,
      "Ġele": 1136,
      "Ġvalue": 1137,
      "Ġgreat": 1138,
      "Ġpartic": 1139,
      "Ġplan": 1140,
      "tal": 1141,
      "ired": 1142,
      "err": 1143,
      "Ġgiven": 1144,
      "nce": 1145,
      "Ġhist": 1146,
      "Ġanal": 1147,
      "Ġide": 1148,
      "Ġpass": 1149,
      "Ġprovid": 1150,
      "cent": 1151,
      "ized": 1152,
      "Ġproduct": 1153,
      "Ġthose": 1154,
      "20": 1155,
      "ences": 1156,
      "Ġlet": 1157,
      "dition": 1158,
      "Ġmem": 1159,
      "ĠYou": 1160,
      "ethod": 1161,
      "iel": 1162,
      "iron": 1163,
      "Ġoften": 1164,
      "Ġmon": 1165,
      "Ġproblem": 1166,
      "Ġgu": 1167,
      "10": 1168,
      "ute": 1169,
      "Ġlook": 1170,
      "Ġgrou": 1171,
      "port": 1172,
      "Ġ18": 1173,
      "Ġpower": 1174,
      "Ġ200": 1175,
      "ages": 1176,
      "Ġpot": 1177,
      "Ġser": 1178,
      "Ġprovide": 1179,
      "ves": 1180,
      "Ġtext": 1181,
      "Ġright": 1182,
      "Ġcharacter": 1183,
      "ives": 1184,
      "To": 1185,
      "'re": 1186,
      "Ġthink": 1187,
      "Ġcar": 1188,
      "ĠAs": 1189,
      "ĠThey": 1190,
      "Ġsmall": 1191,
      "ec": 1192,
      "Ġsaid": 1193,
      "Ġtest": 1194,
      "Ġsame": 1195,
      "par": 1196,
      "Ġstudents": 1197,
      "ional": 1198,
      "Ġaut": 1199,
      "ock": 1200,
      "tle": 1201,
      "Ġconf": 1202,
      "cription": 1203,
      "Ġbecause": 1204,
      "Ġcreat": 1205,
      "der": 1206,
      "ually": 1207,
      "Ġprogram": 1208,
      "air": 1209,
      "Ġdown": 1210,
      "Ġstate": 1211,
      "Ġshow": 1212,
      "ĠâĢĵ": 1213,
      "und": 1214,
      "ĠPro": 1215,
      "Ġkey": 1216,
      "Ġav": 1217,
      "Ġallow": 1218,
      "Ġfeel": 1219,
      "ined": 1220,
      "Ġvery": 1221,
      "ved": 1222,
      "Ġpop": 1223,
      "Ġsupport": 1224,
      "Ġgrow": 1225,
      "Ġeng": 1226,
      "You": 1227,
      "sw": 1228,
      "Ġbefore": 1229,
      "Ġsent": 1230,
      "Ġfollowing": 1231,
      "This": 1232,
      "ety": 1233,
      "Ġduring": 1234,
      "ody": 1235,
      "ĠAl": 1236,
      "Ġwant": 1237,
      "viron": 1238,
      "{\"": 1239,
      "chool": 1240,
      "Ġmust": 1241,
      "St": 1242,
      "Ġcle": 1243,
      "ead": 1244,
      "ets": 1245,
      "ĠĠĠĠĠĠĠĠĠĠĠĠĠĠĠĠ": 1246,
      "Ġrev": 1247,
      "ument": 1248,
      "ner": 1249,
      "Ġtotal": 1250,
      "Ġinput": 1251,
      "Ġmade": 1252,
      "itive": 1253,
      "Ġaround": 1254,
      "ix": 1255,
      "Ġmethod": 1256,
      "Ġdire": 1257,
      "Ġel": 1258,
      "rac": 1259,
      "Ġgl": 1260,
      "Ġ9": 1261,
      "Ġthough": 1262,
      "ython": 1263,
      "oid": 1264,
      "Ġreal": 1265,
      "arly": 1266,
      "erest": 1267,
      "Ġident": 1268,
      "Ġmuch": 1269,
      "ving": 1270,
      "Ġcontin": 1271,
      "Ġsum": 1272,
      "Ġhour": 1273,
      "meric": 1274,
      "Ġterm": 1275,
      "Ġhuman": 1276,
      "ted": 1277,
      "omm": 1278,
      "Ġlevel": 1279,
      "Ġplay": 1280,
      "Ġbeh": 1281,
      "ox": 1282,
      "ier": 1283,
      "Ġess": 1284,
      "Ġagain": 1285,
      "Ġnow": 1286,
      "Ġthree": 1287,
      "des": 1288,
      "the": 1289,
      "Ġincluding": 1290,
      "uss": 1291,
      "Ġbook": 1292,
      "Ġap": 1293,
      "Ġpotential": 1294,
      "day": 1295,
      "Ġdesign": 1296,
      "ĠCon": 1297,
      "ale": 1298,
      "Ġmult": 1299,
      "Ġgood": 1300,
      "atic": 1301,
      "Ġcomplex": 1302,
      "Ġpur": 1303,
      "ency": 1304,
      "type": 1305,
      "Ġ|": 1306,
      "Ġserv": 1307,
      "Ġop": 1308,
      "\":\"": 1309,
      "ocus": 1310,
      "str": 1311,
      "Ġmet": 1312,
      "vironment": 1313,
      "Ġwithout": 1314,
      "ared": 1315,
      "ergy": 1316,
      "ray": 1317,
      "vern": 1318,
      "idence": 1319,
      "Ġstudy": 1320,
      "Ġ{\"": 1321,
      "up": 1322,
      "ull": 1323,
      "What": 1324,
      "Ġcurrent": 1325,
      "ploy": 1326,
      "raph": 1327,
      "Ġwithin": 1328,
      "Ġbel": 1329,
      "ĠAn": 1330,
      "ering": 1331,
      "Ġcare": 1332,
      "ains": 1333,
      "Ġrelations": 1334,
      "be": 1335,
      "Ġprof": 1336,
      "ĠWhat": 1337,
      "Ġest": 1338,
      "Ġconc": 1339,
      "Ġcost": 1340,
      "Ġstory": 1341,
      "ave": 1342,
      "Ġtri": 1343,
      "ivers": 1344,
      "Ġinterest": 1345,
      "arge": 1346,
      "Ġimpro": 1347,
      "Ġmean": 1348,
      "ĠAmeric": 1349,
      "io": 1350,
      "to": 1351,
      "Ġtool": 1352,
      "Ġsignific": 1353,
      "ories": 1354,
      "ique": 1355,
      "line": 1356,
      "Ġquestion": 1357,
      "Ġadv": 1358,
      "ross": 1359,
      "Ġaw": 1360,
      "ery": 1361,
      "Ġprint": 1362,
      "Ġredu": 1363,
      "Ġpublic": 1364,
      "Ġstand": 1365,
      "Ġspecific": 1366,
      "ank": 1367,
      "ining": 1368,
      "cond": 1369,
      "Ġinteg": 1370,
      "ination": 1371,
      "Ġchang": 1372,
      "ling": 1373,
      "ee": 1374,
      "Ġtop": 1375,
      "ci": 1376,
      "Ġlit": 1377,
      "Ġcalcul": 1378,
      "Ġresearch": 1379,
      "ral": 1380,
      "rodu": 1381,
      "ateg": 1382,
      "ization": 1383,
      "ouse": 1384,
      "ividual": 1385,
      "Ġocc": 1386,
      "Ġless": 1387,
      "apt": 1388,
      "Ġfocus": 1389,
      "itions": 1390,
      "oh": 1391,
      "Ġansw": 1392,
      "frac": 1393,
      "Ġ201": 1394,
      "ason": 1395,
      "au": 1396,
      "Ġimportant": 1397,
      "Ġmus": 1398,
      "Ġrelationship": 1399,
      "Ġchildren": 1400,
      "ĠAr": 1401,
      "ator": 1402,
      "Ġinc": 1403,
      "Ġrepres": 1404,
      "Ġbre": 1405,
      "ĠHowever": 1406,
      "Ġstruct": 1407,
      "iles": 1408,
      "ital": 1409,
      "Ġfood": 1410,
      "Ġactiv": 1411,
      "How": 1412,
      "Ġmark": 1413,
      "Ġoper": 1414,
      "def": 1415,
      "tain": 1416,
      "Ġproject": 1417,
      "Ġobject": 1418,
      "Ġbuild": 1419,
      "ext": 1420,
      "ash": 1421,
      "Ġlight": 1422,
      "rol": 1423,
      "angu": 1424,
      "Ġland": 1425,
      "Ġsom": 1426,
      "els": 1427,
      "Ġcase": 1428,
      "ertain": 1429,
      "Ġsocial": 1430,
      "Ġindividual": 1431,
      "cing": 1432,
      "Ġdid": 1433,
      "Ġorgan": 1434,
      "Ġpossible": 1435,
      "here": 1436,
      "sc": 1437,
      "Ġperform": 1438,
      "amet": 1439,
      "ĠBut": 1440,
      "Ġline": 1441,
      "iness": 1442,
      "Ġdem": 1443,
      "Ġsense": 1444,
      "ways": 1445,
      "Ġcho": 1446,
      "hem": 1447,
      "oss": 1448,
      "Ġenvironment": 1449,
      "ĠThere": 1450,
      "ieve": 1451,
      "ision": 1452,
      "Ġstill": 1453,
      "Ġinvol": 1454,
      "Ġstep": 1455,
      "riend": 1456,
      "Ġname": 1457,
      "ulation": 1458,
      "Ġchange": 1459,
      "description": 1460,
      "ev": 1461,
      "oun": 1462,
      ".,": 1463,
      "Ġmaking": 1464,
      "less": 1465,
      "Ġdra": 1466,
      "}{": 1467,
      "__": 1468,
      "Ġimpact": 1469,
      "ems": 1470,
      "Ġ#": 1471,
      "\",\"": 1472,
      "ior": 1473,
      "Ġcommon": 1474,
      "Ġproper": 1475,
      "Ġphys": 1476,
      "ggest": 1477,
      "Ġlarge": 1478,
      "50": 1479,
      "Ġknown": 1480,
      "Ġpresent": 1481,
      "Ġben": 1482,
      "Ġarea": 1483,
      "Ġsl": 1484,
      "Ġtre": 1485,
      "ression": 1486,
      "Ġnumbers": 1487,
      "Ġinclude": 1488,
      "ished": 1489,
      "ote": 1490,
      "bs": 1491,
      "Ġfew": 1492,
      "Ġvalues": 1493,
      "reen": 1494,
      "Ġdon": 1495,
      "Ġtry": 1496,
      "ĠNew": 1497,
      "Ġschool": 1498,
      "Ġcour": 1499,
      "Ġsucc": 1500,
      "Ġiss": 1501,
      "Ġsuggest": 1502,
      "Ġris": 1503,
      "Ġbus": 1504,
      "ield": 1505,
      "Ġtyp": 1506,
      "Ġbr": 1507,
      "Ġdeterm": 1508,
      "'ve": 1509,
      "app": 1510,
      "Ġapproach": 1511,
      "ĠThese": 1512,
      "Ġarg": 1513,
      "Ġanother": 1514,
      "Ġenergy": 1515,
      "Ġorig": 1516,
      "Ġtem": 1517,
      "omen": 1518,
      "ĠAnd": 1519,
      "Ġcult": 1520,
      "It": 1521,
      "Ġplace": 1522,
      "orn": 1523,
      "Ġprob": 1524,
      "As": 1525,
      "ified": 1526,
      "If": 1527,
      "Ġaff": 1528,
      "Ġtype": 1529,
      "lish": 1530,
      "Ġsignificant": 1531,
      "ĠWh": 1532,
      "alk": 1533,
      "ah": 1534,
      "ury": 1535,
      "\")": 1536,
      "ĠEx": 1537,
      "ustom": 1538,
      "Ġcorre": 1539,
      "Ġlangu": 1540,
      "Ġ12": 1541,
      "Ġdel": 1542,
      "Ġdirect": 1543,
      "Ġprot": 1544,
      "ources": 1545,
      "over": 1546,
      "Ġve": 1547,
      "Ġchall": 1548,
      "lease": 1549,
      "irc": 1550,
      "de": 1551,
      "az": 1552,
      "Ġfin": 1553,
      "ental": 1554,
      "Ġcell": 1555,
      "oci": 1556,
      "Ġaccess": 1557,
      "Ġexperience": 1558,
      "ek": 1559,
      "Ġsecond": 1560,
      "Ġsit": 1561,
      "tt": 1562,
      "Ġsym": 1563,
      "Ġwords": 1564,
      "Ġgroup": 1565,
      "verage": 1566,
      "ysis": 1567,
      "Ġlast": 1568,
      "Ġbased": 1569,
      "Ġpract": 1570,
      "Ġens": 1571,
      "Ġspace": 1572,
      "'ll": 1573,
      "Ġfore": 1574,
      "urther": 1575,
      "Ġcity": 1576,
      "yn": 1577,
      "ĠAd": 1578,
      "lu": 1579,
      "Ġerr": 1580,
      "Ġeduc": 1581,
      "Ġbeg": 1582,
      "19": 1583,
      "Ġopen": 1584,
      "Ġ.": 1585,
      "Ġgovern": 1586,
      "arr": 1587,
      "Ġnon": 1588,
      "Ġdays": 1589,
      "Ġcomb": 1590,
      "ills": 1591,
      "Ġprom": 1592,
      "ights": 1593,
      "Ġfamily": 1594,
      "arth": 1595,
      "ides": 1596,
      "Ġhistory": 1597,
      "Ġold": 1598,
      "Ġhours": 1599,
      "nect": 1600,
      "pos": 1601,
      "Ġcode": 1602,
      "Ġ&": 1603,
      "tool": 1604,
      "Ġmag": 1605,
      "Ġtreat": 1606,
      "Ġcap": 1607,
      "Ġbody": 1608,
      "Ġunderstanding": 1609,
      "...": 1610,
      "',": 1611,
      "atural": 1612,
      "ples": 1613,
      "Ġlim": 1614,
      "Ġbra": 1615,
      "aj": 1616,
      "ames": 1617,
      "Ġbest": 1618,
      "Ġdevelopment": 1619,
      "ĠIs": 1620,
      "Ġappe": 1621,
      "ream": 1622,
      "Ġparticular": 1623,
      "Ġsay": 1624,
      "An": 1625,
      "Ġhere": 1626,
      "Ġkeep": 1627,
      "num": 1628,
      "hor": 1629,
      "Ġanswer": 1630,
      "son": 1631,
      "Ġorder": 1632,
      "ots": 1633,
      "Ġemploy": 1634,
      "por": 1635,
      "ĠInd": 1636,
      "atch": 1637,
      "Ġaddition": 1638,
      "Ġdev": 1639,
      "plic": 1640,
      "Ġcalled": 1641,
      "Ġhome": 1642,
      "iod": 1643,
      "ention": 1644,
      "Ġimm": 1645,
      "aterial": 1646,
      "12": 1647,
      "Ġrun": 1648,
      "Ġamount": 1649,
      "Ġbo": 1650,
      "ĠBy": 1651,
      "ength": 1652,
      "idd": 1653,
      "Ġdise": 1654,
      "gether": 1655,
      "Ġtogether": 1656,
      "Ġreport": 1657,
      "verse": 1658,
      "Ġlearn": 1659,
      "ĠTo": 1660,
      "ton": 1661,
      "Ġz": 1662,
      "Ġmeans": 1663,
      "Ġey": 1664,
      "Ġstring": 1665,
      "ledge": 1666,
      "conom": 1667,
      "Ġdescri": 1668,
      "We": 1669,
      "ats": 1670,
      "Ġopt": 1671,
      ".âĢĿ": 1672,
      "Ġsuccess": 1673,
      "ards": 1674,
      "hers": 1675,
      "aut": 1676,
      "Ġlocal": 1677,
      "aps": 1678,
      "Ġrepresent": 1679,
      "ĠSe": 1680,
      "ries": 1681,
      "Ġdetail": 1682,
      "Ġ15": 1683,
      "Ġfriend": 1684,
      "requ": 1685,
      "ven": 1686,
      "ask": 1687,
      "Ġbro": 1688,
      "Ġlanguage": 1689,
      "Ġdiscuss": 1690,
      "oad": 1691,
      "Ġareas": 1692,
      "Ġsal": 1693,
      "Ġothers": 1694,
      "Ġfile": 1695,
      "ĠĠĠĠĠĠĠĠĠĠĠĠĠĠĠ": 1696,
      "Ġfunctions": 1697,
      "Ġcontain": 1698,
      "Ġbetter": 1699,
      "abor": 1700,
      "ables": 1701,
      "Ġpast": 1702,
      "Ġmulti": 1703,
      "Ġemot": 1704,
      "Ġhapp": 1705,
      "ope": 1706,
      "Ġleft": 1707,
      "Ġelect": 1708,
      "Ġnext": 1709,
      "ape": 1710,
      "Ġessential": 1711,
      "Ġsever": 1712,
      "ively": 1713,
      "Ġturn": 1714,
      "Ġalways": 1715,
      "oint": 1716,
      "Ġtoo": 1717,
      "Ġi": 1718,
      "Ġeas": 1719,
      "Ġhead": 1720,
      "plement": 1721,
      "Ġenc": 1722,
      "Ġaccount": 1723,
      "Here": 1724,
      "urs": 1725,
      "Ġbecome": 1726,
      "uments": 1727,
      "Ġmeas": 1728,
      "ised": 1729,
      "aring": 1730,
      "Ġimprove": 1731,
      "Ġ\\(": 1732,
      "Ġrange": 1733,
      "\":{\"": 1734,
      "by": 1735,
      "Ġunique": 1736,
      "ances": 1737,
      "iversity": 1738,
      "Ġcaus": 1739,
      "ĠQ": 1740,
      "Ġsw": 1741,
      "Ġrest": 1742,
      "'m": 1743,
      "ending": 1744,
      "Ġtimes": 1745,
      "of": 1746,
      "Ġpain": 1747,
      "Ġmove": 1748,
      "man": 1749,
      "print": 1750,
      "ething": 1751,
      "arent": 1752,
      "Ġcustom": 1753,
      "Ġmaterial": 1754,
      "Ġanalysis": 1755,
      "ilities": 1756,
      "Ġmonth": 1757,
      "Ġfac": 1758,
      "Ġbenef": 1759,
      "Ġes": 1760,
      "Ġagainst": 1761,
      "pro": 1762,
      "Ġflow": 1763,
      "Ġinvest": 1764,
      "ients": 1765,
      "ffic": 1766,
      "Ġheart": 1767,
      "Ġtravel": 1768,
      "))": 1769,
      "Ġach": 1770,
      "iting": 1771,
      "iction": 1772,
      "ik": 1773,
      "Ġlog": 1774,
      "ember": 1775,
      "amp": 1776,
      "illion": 1777,
      "ently": 1778,
      "Ġavail": 1779,
      "ĠSh": 1780,
      "Ġsince": 1781,
      "Ġvarious": 1782,
      "ĠShe": 1783,
      "Ġcompany": 1784,
      "Ġinit": 1785,
      "ological": 1786,
      "ĠDe": 1787,
      "Ġseveral": 1788,
      "Ġconcept": 1789,
      "Ġteam": 1790,
      "Ġrole": 1791,
      "ording": 1792,
      "Ġuser": 1793,
      "not": 1794,
      "Ġair": 1795,
      "ource": 1796,
      "pre": 1797,
      "Ġage": 1798,
      "Ġ$\\": 1799,
      "oring": 1800,
      "omet": 1801,
      "Ġmar": 1802,
      "Ġrespons": 1803,
      "Ġcontrol": 1804,
      "work": 1805,
      "iving": 1806,
      "ctor": 1807,
      "Ġmind": 1808,
      "ĠEng": 1809,
      "Ġ:": 1810,
      "Ġsomething": 1811,
      "Ġmodel": 1812,
      "Ġresults": 1813,
      "Ġstat": 1814,
      "ault": 1815,
      "Ġsing": 1816,
      "for": 1817,
      "aging": 1818,
      "istic": 1819,
      "Ġleg": 1820,
      "ration": 1821,
      "ties": 1822,
      "ug": 1823,
      "Ġchanges": 1824,
      "outh": 1825,
      "Ġconne": 1826,
      "ane": 1827,
      "ĠSc": 1828,
      "IN": 1829,
      "//": 1830,
      "Ġcommunity": 1831,
      "onse": 1832,
      "ived": 1833,
      "Ġ30": 1834,
      "Ġlearning": 1835,
      "ush": 1836,
      "clus": 1837,
      "Ġpattern": 1838,
      "Ġnatural": 1839,
      "Ġsupp": 1840,
      "Ġbas": 1841,
      "rop": 1842,
      "Ġexist": 1843,
      "ograph": 1844,
      "ample": 1845,
      "rite": 1846,
      "utes": 1847,
      "Ġlow": 1848,
      "Ġask": 1849,
      "alance": 1850,
      "Ġshort": 1851,
      "ird": 1852,
      "Ġcertain": 1853,
      "Ġbusiness": 1854,
      "right": 1855,
      "ĠCan": 1856,
      "oms": 1857,
      "arc": 1858,
      "ogn": 1859,
      "ST": 1860,
      "alls": 1861,
      "Ġremain": 1862,
      "ĠWhen": 1863,
      "Ġhy": 1864,
      "word": 1865,
      "system": 1866,
      "Ġapplic": 1867,
      "Ġdiff": 1868,
      "cer": 1869,
      "olution": 1870,
      "Ġcr": 1871,
      "Ġbi": 1872,
      "asing": 1873,
      "Ġsure": 1874,
      "Ġpoints": 1875,
      "Ġgr": 1876,
      "Ġ==": 1877,
      "ians": 1878,
      "ium": 1879,
      "ĠRe": 1880,
      "Ġperiod": 1881,
      "Ġstructure": 1882,
      "Ġfurther": 1883,
      "Ġbehav": 1884,
      "Ġexplore": 1885,
      "osp": 1886,
      "Ġant": 1887,
      "Ġobs": 1888,
      "Ġexperi": 1889,
      "Ġmot": 1890,
      "Ġcome": 1891,
      "Ġview": 1892,
      "Ġknowledge": 1893,
      "Ġinflu": 1894,
      "ney": 1895,
      "ĠEm": 1896,
      "ohn": 1897,
      "Ġnecess": 1898,
      "Ġhig": 1899,
      "Ġscient": 1900,
      "Ġrequired": 1901,
      "Ġaverage": 1902,
      "uture": 1903,
      "Ġeconom": 1904,
      "Ġunt": 1905,
      "ibr": 1906,
      "Ġways": 1907,
      "Ġanim": 1908,
      "Ġsqu": 1909,
      "Ġside": 1910,
      "Ġlaw": 1911,
      "Ġelse": 1912,
      "ĠHere": 1913,
      "Ġtrue": 1914,
      "orth": 1915,
      "Ġsaf": 1916,
      "âĢĶ": 1917,
      "Ġgrowth": 1918,
      "Ġ100": 1919,
      "ditions": 1920,
      "Ġâ": 1921,
      "ajor": 1922,
      "ĠSp": 1923,
      "For": 1924,
      "Ġword": 1925,
      "Ġdeep": 1926,
      "Ġstrong": 1927,
      "Ġrece": 1928,
      "Ġleast": 1929,
      "There": 1930,
      "Ġacross": 1931,
      "Ġmov": 1932,
      "me": 1933,
      "Ġmeet": 1934,
      "Ġcrit": 1935,
      "Ġpercent": 1936,
      "Ġgovernment": 1937,
      "::": 1938,
      "Ġwriting": 1939,
      "},": 1940,
      "Ġchalleng": 1941,
      "ission": 1942,
      "Ġavailable": 1943,
      "Ġable": 1944,
      "Ġpost": 1945,
      "ĠCl": 1946,
      "uro": 1947,
      "Ġ199": 1948,
      "ĠAmerican": 1949,
      "Ġfund": 1950,
      "Ġsystems": 1951,
      "Ġge": 1952,
      "Ġthings": 1953,
      "ches": 1954,
      "||": 1955,
      "ror": 1956,
      "15": 1957,
      "oot": 1958,
      "Ġyoung": 1959,
      "ĠRes": 1960,
      "So": 1961,
      "lying": 1962,
      "Ġfree": 1963,
      "Ġclear": 1964,
      "ĠAI": 1965,
      "Ġevent": 1966,
      "Ġmess": 1967,
      "Ġideas": 1968,
      "Ġpersonal": 1969,
      "Ġworking": 1970,
      "Ġdistrib": 1971,
      "agement": 1972,
      "ids": 1973,
      "Ġdue": 1974,
      "Ġfar": 1975,
      "Ġamong": 1976,
      "ĠEn": 1977,
      "Ġterms": 1978,
      "br": 1979,
      "Ġstrateg": 1980,
      "Ġred": 1981,
      "Ġsentence": 1982,
      "Ġbegin": 1983,
      "imately": 1984,
      "utions": 1985,
      "Ġearly": 1986,
      "Ġmarket": 1987,
      "Ġjour": 1988,
      "wards": 1989,
      "ms": 1990,
      "Ġdiv": 1991,
      "eral": 1992,
      "Ġidentify": 1993,
      "value": 1994,
      "Ġelements": 1995,
      "}$": 1996,
      "Ġlove": 1997,
      "pportun": 1998,
      "ended": 1999,
      "aves": 2000,
      "Ġneeds": 2001,
      "Ġrather": 2002,
      "Ġwar": 2003,
      "ilt": 2004,
      "arget": 2005,
      "ameters": 2006,
      "Ġrisk": 2007,
      "Ġexpect": 2008,
      "izing": 2009,
      "Ġaddress": 2010,
      "ĠPh": 2011,
      "Ġ16": 2012,
      "ires": 2013,
      "anced": 2014,
      "ole": 2015,
      "Ġworks": 2016,
      "ann": 2017,
      "ither": 2018,
      "Ġconnect": 2019,
      "ibility": 2020,
      "Ġfeet": 2021,
      "Ġfuture": 2022,
      "Ġtechnology": 2023,
      "Ġfour": 2024,
      "Ġimplement": 2025,
      "use": 2026,
      "Ġbreak": 2027,
      "Ġdat": 2028,
      "Ġshare": 2029,
      "osed": 2030,
      "aces": 2031,
      "Ġensure": 2032,
      "Ġdisease": 2033,
      "Ġgive": 2034,
      "Ġcorrect": 2035,
      "Ġmaintain": 2036,
      "Ġreason": 2037,
      "ER": 2038,
      "illed": 2039,
      "Ġabove": 2040,
      "Ġmen": 2041,
      "Ġnature": 2042,
      "Ġrad": 2043,
      "Ġwomen": 2044,
      "Ġneeded": 2045,
      "pecial": 2046,
      "Ġweek": 2047,
      "Ġcheck": 2048,
      "Ġindic": 2049,
      "Ġopportun": 2050,
      "Ġsound": 2051,
      "Ġaffect": 2052,
      "Ġspecial": 2053,
      "Ġcirc": 2054,
      "Ġpress": 2055,
      "Ġquestions": 2056,
      "face": 2057,
      "Ġalong": 2058,
      "Ġrequire": 2059,
      "Ġ//": 2060,
      "stit": 2061,
      "Ġidea": 2062,
      "ĠPython": 2063,
      "Ġjob": 2064,
      "Now": 2065,
      "Ġ<<": 2066,
      "Ġdig": 2067,
      "ĠCol": 2068,
      "Ġsun": 2069,
      "Ġpopulation": 2070,
      "Ġindust": 2071,
      "lex": 2072,
      "Ġgeneral": 2073,
      "Ġsize": 2074,
      "ze": 2075,
      "augh": 2076,
      "ately": 2077,
      "Ġestab": 2078,
      "lished": 2079,
      "Ġmajor": 2080,
      "Ġcontent": 2081,
      "ĠUniversity": 2082,
      "Ġcommunic": 2083,
      "ĠAt": 2084,
      "Ġincrease": 2085,
      "Ġsimple": 2086,
      "vious": 2087,
      "----": 2088,
      "python": 2089,
      "Ġsearch": 2090,
      "icle": 2091,
      "inary": 2092,
      "atures": 2093,
      "let": 2094,
      "ĠSo": 2095,
      "Ġuntil": 2096,
      "Ġcomput": 2097,
      "Ġprofess": 2098,
      "Ġcolle": 2099,
      "Ġthought": 2100,
      "rap": 2101,
      "ference": 2102,
      "Ġpositive": 2103,
      "Ġvers": 2104,
      "Con": 2105,
      "Ġpath": 2106,
      "selves": 2107,
      "call": 2108,
      "etic": 2109,
      "Ġprobability": 2110,
      ".\",": 2111,
      "Ġequation": 2112,
      "Ġnet": 2113,
      "ĠZ": 2114,
      "18": 2115,
      "ception": 2116,
      "Ġcontrib": 2117,
      "Ġpa": 2118,
      "Ġevidence": 2119,
      "Ġpri": 2120,
      "Ġcharacters": 2121,
      "aken": 2122,
      "ĠCom": 2123,
      "min": 2124,
      "sh": 2125,
      "Ġhard": 2126,
      "dict": 2127,
      "aries": 2128,
      "Ġaway": 2129,
      "oph": 2130,
      "Ġput": 2131,
      "pose": 2132,
      "Ġformat": 2133,
      "Ġmax": 2134,
      "Ġmathem": 2135,
      "Ġcoll": 2136,
      "Ġcontinu": 2137,
      "Ġneg": 2138,
      "orld": 2139,
      "ilar": 2140,
      "aster": 2141,
      "elling": 2142,
      "Ġoriginal": 2143,
      "Ġfactors": 2144,
      "vert": 2145,
      "Ġill": 2146,
      "Ġstore": 2147,
      "Ġvol": 2148,
      "Ġskills": 2149,
      "pty": 2150,
      ",âĢĿ": 2151,
      "ĠâĢĺ": 2152,
      "aim": 2153,
      "Ġlikely": 2154,
      "Ġtakes": 2155,
      "Ġlarg": 2156,
      "ume": 2157,
      "Ġconditions": 2158,
      "Ġhouse": 2159,
      "arl": 2160,
      "alf": 2161,
      "ĠUnited": 2162,
      "Wh": 2163,
      "ming": 2164,
      "Ġintern": 2165,
      "Ġlittle": 2166,
      "Ġnever": 2167,
      "Ġseries": 2168,
      "rist": 2169,
      "icult": 2170,
      "Ġfield": 2171,
      "yle": 2172,
      "play": 2173,
      "Ex": 2174,
      "Ġresponse": 2175,
      "Ġ50": 2176,
      "Ġrate": 2177,
      "Ġcourse": 2178,
      "imum": 2179,
      "30": 2180,
      "Ġcountry": 2181,
      "ĠPl": 2182,
      "oura": 2183,
      "Ġcreating": 2184,
      "erc": 2185,
      "Ġwhether": 2186,
      "ĠX": 2187,
      "Ġ17": 2188,
      "Ġlength": 2189,
      "Ġevents": 2190,
      "sy": 2191,
      "Ġmusic": 2192,
      "('": 2193,
      "Ġauthor": 2194,
      "angle": 2195,
      "ler": 2196,
      "Ġprovides": 2197,
      "ĠOr": 2198,
      "Ġcomplete": 2199,
      "Ġkind": 2200,
      "uation": 2201,
      "Ġassoci": 2202,
      "ivity": 2203,
      "ule": 2204,
      "orts": 2205,
      "thing": 2206,
      "Ġwind": 2207,
      "</": 2208,
      "Ġet": 2209,
      "Ġcalculate": 2210,
      "11": 2211,
      "aching": 2212,
      "cient": 2213,
      "Ġexpress": 2214,
      "Al": 2215,
      "back": 2216,
      "AT": 2217,
      "bed": 2218,
      "light": 2219,
      "Ġlevels": 2220,
      "ude": 2221,
      "Ġmom": 2222,
      "Ġsens": 2223,
      "Ġeducation": 2224,
      "cur": 2225,
      "Ġproblems": 2226,
      "ĠBe": 2227,
      "By": 2228,
      "_{": 2229,
      "Ġsingle": 2230,
      "Ġaud": 2231,
      "rror": 2232,
      "Ġnight": 2233,
      "Ġcause": 2234,
      "Ġphysical": 2235,
      "Ġitself": 2236,
      "side": 2237,
      "Ġnorm": 2238,
      "âĢľ": 2239,
      "set": 2240,
      "Ġtarget": 2241,
      "oman": 2242,
      "Ġoutput": 2243,
      "Ġspecies": 2244,
      "Ġanaly": 2245,
      "ĠComm": 2246,
      "ina": 2247,
      "Ġblood": 2248,
      "Ġseem": 2249,
      "raft": 2250,
      "Ġoccur": 2251,
      "Ġeffic": 2252,
      "sequ": 2253,
      "duct": 2254,
      "string": 2255,
      "Ġresources": 2256,
      "Ġmedia": 2257,
      "Ġproducts": 2258,
      "Ġdetermine": 2259,
      "Ġaction": 2260,
      "ava": 2261,
      "Ġcalls": 2262,
      "Ġmethods": 2263,
      "Ġachieve": 2264,
      "Ġlater": 2265,
      "Ġsays": 2266,
      "ges": 2267,
      "Ġupon": 2268,
      "omes": 2269,
      "When": 2270,
      "Ġprevent": 2271,
      "Ġ25": 2272,
      "âĢĵ": 2273,
      "Ġplant": 2274,
      "ipp": 2275,
      "Ġfil": 2276,
      "ĠJohn": 2277,
      "ured": 2278,
      "Ġhaving": 2279,
      "ĠWith": 2280,
      "Ġonce": 2281,
      "import": 2282,
      "fully": 2283,
      "mit": 2284,
      "action": 2285,
      "ready": 2286,
      "Ġur": 2287,
      "Ġseen": 2288,
      "iver": 2289,
      "Ġintrodu": 2290,
      "Ġtools": 2291,
      "ators": 2292,
      "Ġmakes": 2293,
      "iety": 2294,
      "Ġmeaning": 2295,
      "Ġdraw": 2296,
      "ones": 2297,
      "Ġprim": 2298,
      "ged": 2299,
      "Ġgroups": 2300,
      "Ġmultiple": 2301,
      "Ġscience": 2302,
      "ditional": 2303,
      "ON": 2304,
      "Ġcases": 2305,
      "Ġhistor": 2306,
      "gen": 2307,
      "Ġfull": 2308,
      "Ġpolit": 2309,
      "Ġdifficult": 2310,
      "co": 2311,
      "Ġrele": 2312,
      "iet": 2313,
      "une": 2314,
      "Ġpriv": 2315,
      "new": 2316,
      "ably": 2317,
      "ends": 2318,
      "pecially": 2319,
      "Ġtemper": 2320,
      "Ġcontext": 2321,
      "Ġscen": 2322,
      "Ġpie": 2323,
      "Ġtoday": 2324,
      "Ġmiles": 2325,
      "ilit": 2326,
      "Ġmathemat": 2327,
      "Ġissues": 2328,
      "Ġdr": 2329,
      "Ġinitial": 2330,
      "Ġeyes": 2331,
      "Ġuses": 2332,
      "ww": 2333,
      "Ġclose": 2334,
      "ĠTr": 2335,
      "text": 2336,
      "inct": 2337,
      "Ġactivities": 2338,
      "Ġcells": 2339,
      "ĠĠĠĠĠ": 2340,
      "ters": 2341,
      "ĠHis": 2342,
      "oney": 2343,
      "ung": 2344,
      "cle": 2345,
      "Ġrecord": 2346,
      "Ġtreatment": 2347,
      "ips": 2348,
      "ison": 2349,
      "Ġalready": 2350,
      "ĠOn": 2351,
      "Ġprotect": 2352,
      "ma": 2353,
      "Ġsoft": 2354,
      "Ġtypes": 2355,
      "Ġvir": 2356,
      "Ġgoing": 2357,
      "Ġvisit": 2358,
      "OR": 2359,
      "ĠStates": 2360,
      "Ġmillion": 2361,
      "nces": 2362,
      "Ġrespect": 2363,
      "bol": 2364,
      "Ġconcern": 2365,
      "ises": 2366,
      "Ġnear": 2367,
      "Ġlay": 2368,
      "Ġhigher": 2369,
      "40": 2370,
      "Ġsimilar": 2371,
      "Ġavoid": 2372,
      "Ġentire": 2373,
      "ĠDr": 2374,
      "Ġdistance": 2375,
      "Ġnecessary": 2376,
      "Ġtheory": 2377,
      "Ġsubject": 2378,
      "ĠOne": 2379,
      "Ġbehavior": 2380,
      "ula": 2381,
      "Ġparent": 2382,
      "Ġbelie": 2383,
      "Ġconnection": 2384,
      "iven": 2385,
      "enc": 2386,
      "otal": 2387,
      "Ġwhy": 2388,
      "Error": 2389,
      "Ġsat": 2390,
      "Pro": 2391,
      "ising": 2392,
      "Ġobserv": 2393,
      "Ġreally": 2394,
      "though": 2395,
      "ĠFr": 2396,
      "Ġmyst": 2397,
      "Ġgreen": 2398,
      "head": 2399,
      "Ġfrequ": 2400,
      "af": 2401,
      "obal": 2402,
      "();": 2403,
      "ront": 2404,
      "Ġstd": 2405,
      "Ġdoc": 2406,
      "Ġstandard": 2407,
      "Ġla": 2408,
      "asc": 2409,
      "Ġtown": 2410,
      "Ġdest": 2411,
      "Ġspeed": 2412,
      "Ġprote": 2413,
      "Ġbalance": 2414,
      "eed": 2415,
      "ection": 2416,
      "Ġtaking": 2417,
      "Ġespecially": 2418,
      "ĠCal": 2419,
      "'d": 2420,
      "ruction": 2421,
      "Ġrelationships": 2422,
      "function": 2423,
      "16": 2424,
      "Ġport": 2425,
      "Ġreduce": 2426,
      "oon": 2427,
      "Ġcru": 2428,
      "epend": 2429,
      "Ġann": 2430,
      "Ġground": 2431,
      "Ġpay": 2432,
      "inally": 2433,
      "Ġindividuals": 2434,
      "Ġconvers": 2435,
      "Ġthemselves": 2436,
      "Ġlo": 2437,
      "edi": 2438,
      "aily": 2439,
      "Ġyet": 2440,
      "ched": 2441,
      "urope": 2442,
      "25": 2443,
      "Ġeither": 2444,
      "ttp": 2445,
      "enn": 2446,
      "vey": 2447,
      "Ġbehind": 2448,
      "Ġsequ": 2449,
      "Ġliving": 2450,
      "ees": 2451,
      "Ġphot": 2452,
      "Ġenough": 2453,
      "Ġcentury": 2454,
      "Ġtell": 2455,
      "place": 2456,
      "ales": 2457,
      "Ġprovided": 2458,
      "Ġoffer": 2459,
      "Ġang": 2460,
      "=\"": 2461,
      "Ġcy": 2462,
      "Ġproduction": 2463,
      "Ġlower": 2464,
      "Ġfall": 2465,
      "Ġlack": 2466,
      "way": 2467,
      "Ġabs": 2468,
      "ĠUse": 2469,
      "Ġsn": 2470,
      "Ġability": 2471,
      "onsider": 2472,
      "time": 2473,
      "Ġperformance": 2474,
      "Ġpolic": 2475,
      "Ġmembers": 2476,
      "Ġprior": 2477,
      "ift": 2478,
      "Ġmor": 2479,
      "Ġstru": 2480,
      "overed": 2481,
      "earch": 2482,
      "Ġaspect": 2483,
      "Ġsepar": 2484,
      "Ġcapt": 2485,
      "Ġbuilding": 2486,
      "Ġbeaut": 2487,
      "Ġreve": 2488,
      "iation": 2489,
      "rive": 2490,
      "Ġelement": 2491,
      "Ġblack": 2492,
      "$,": 2493,
      "Ġbat": 2494,
      "aches": 2495,
      "Ġeffects": 2496,
      "come": 2497,
      "Ġ11": 2498,
      "ĉĉ": 2499,
      "ĠGod": 2500,
      "fer": 2501,
      "Ġcannot": 2502,
      "lation": 2503,
      "Ġmodern": 2504,
      "ĠNational": 2505,
      "oice": 2506,
      "icro": 2507,
      "roll": 2508,
      "Ġparticip": 2509,
      "Ġpatterns": 2510,
      "equ": 2511,
      "Ġeffective": 2512,
      "ĠUS": 2513,
      "Ġnarr": 2514,
      "Ġbir": 2515,
      "Ġrecogn": 2516,
      "200": 2517,
      "Ġminutes": 2518,
      "orpor": 2519,
      "Ġbring": 2520,
      "ored": 2521,
      "reng": 2522,
      "Ġprin": 2523,
      "osing": 2524,
      "atory": 2525,
      "Ġsolution": 2526,
      "Ġdou": 2527,
      "amed": 2528,
      "Ġface": 2529,
      "ĠâĢĶ": 2530,
      "aling": 2531,
      "Ġ60": 2532,
      "Ch": 2533,
      "Ġdeath": 2534,
      "log": 2535,
      "Ġexperiences": 2536,
      "Let": 2537,
      "Ġbooks": 2538,
      "acy": 2539,
      "ĠIm": 2540,
      "ows": 2541,
      "ĠGo": 2542,
      "iques": 2543,
      "Ġpurpose": 2544,
      "bra": 2545,
      "^{": 2546,
      "Ġloss": 2547,
      "ĠEurope": 2548,
      "Ġbrain": 2549,
      ":**": 2550,
      "itle": 2551,
      "One": 2552,
      "Ġinn": 2553,
      "Ġweight": 2554,
      "artment": 2555,
      "Ġcolor": 2556,
      "count": 2557,
      "leep": 2558,
      "ification": 2559,
      "ĠBrit": 2560,
      "iddle": 2561,
      "ĠAll": 2562,
      "dd": 2563,
      "ores": 2564,
      "Ġancient": 2565,
      "most": 2566,
      "ele": 2567,
      "aving": 2568,
      "\"}}": 2569,
      "Ġarch": 2570,
      "Ġlooking": 2571,
      "ius": 2572,
      "rt": 2573,
      "ival": 2574,
      "Ġcollect": 2575,
      "go": 2576,
      "list": 2577,
      "Ġadditional": 2578,
      "ley": 2579,
      "uck": 2580,
      "Ġroom": 2581,
      "Ġ40": 2582,
      "ĠChrist": 2583,
      "Ġsecre": 2584,
      "haps": 2585,
      "Ġexc": 2586,
      "atively": 2587,
      "80": 2588,
      "Ġbenefits": 2589,
      "ened": 2590,
      "Ġchallenges": 2591,
      "Ġdam": 2592,
      "mon": 2593,
      "Ġparticularly": 2594,
      "path": 2595,
      "ĠSome": 2596,
      "ĠAf": 2597,
      "Ġdark": 2598,
      "Ġdeg": 2599,
      "Ġupd": 2600,
      "Ġfinal": 2601,
      "ĠMed": 2602,
      "ndom": 2603,
      "ĠCent": 2604,
      "Ġfail": 2605,
      "14": 2606,
      "Ġ>": 2607,
      "Ġquality": 2608,
      "Ġtransform": 2609,
      "Ġconsum": 2610,
      "Ġfeed": 2611,
      "ension": 2612,
      "Ġdifference": 2613,
      "60": 2614,
      "ĠEarth": 2615,
      "Ġjourney": 2616,
      "ĠBl": 2617,
      "alse": 2618,
      "uth": 2619,
      "Ġarray": 2620,
      "sq": 2621,
      "ening": 2622,
      "Ġhalf": 2623,
      "Ġ14": 2624,
      "Ġlive": 2625,
      "Ġclaim": 2626,
      "Ġprevious": 2627,
      "Ġsurface": 2628,
      "iment": 2629,
      "Ġwide": 2630,
      "Ġfig": 2631,
      "Ġrelated": 2632,
      "fect": 2633,
      "Ġallows": 2634,
      "Ġengine": 2635,
      "Ġtowards": 2636,
      "ott": 2637,
      "fort": 2638,
      "Ġdistribution": 2639,
      "Ġtaken": 2640,
      "Ġplants": 2641,
      "Ġrecomm": 2642,
      "Ġhold": 2643,
      "Ġstreng": 2644,
      "Ġ13": 2645,
      "ls": 2646,
      "istics": 2647,
      "Ġstudent": 2648,
      "ĠSystem": 2649,
      "Ġsteps": 2650,
      "dom": 2651,
      "Ġonline": 2652,
      "Ġsuper": 2653,
      "my": 2654,
      "itude": 2655,
      "Ġclimate": 2656,
      "Ġposition": 2657,
      "hib": 2658,
      "ivil": 2659,
      "oor": 2660,
      "ĠPer": 2661,
      "Ġdone": 2662,
      "Ġreflect": 2663,
      "Ġsquare": 2664,
      "ĠMay": 2665,
      "ands": 2666,
      "Ġbecame": 2667,
      "Ġthird": 2668,
      "Ġreview": 2669,
      "Ġfive": 2670,
      "Ġmessage": 2671,
      "istance": 2672,
      "Ġoption": 2673,
      "icial": 2674,
      "Ġerror": 2675,
      "oes": 2676,
      "Ġver": 2677,
      "ĠThat": 2678,
      "pite": 2679,
      "Ġconsid": 2680,
      "Ġtable": 2681,
      "Ġbig": 2682,
      "reate": 2683,
      "agn": 2684,
      "Ġempty": 2685,
      "rown": 2686,
      "Ġprec": 2687,
      "Ġsust": 2688,
      "Ġfriends": 2689,
      "Ġmaterials": 2690,
      "Ġusually": 2691,
      "Ġusers": 2692,
      "ĠYork": 2693,
      "resh": 2694,
      "aced": 2695,
      "ites": 2696,
      "Ġlives": 2697,
      "Ġforest": 2698,
      "sych": 2699,
      "Ġever": 2700,
      "li": 2701,
      "Ġstates": 2702,
      "Ġactivity": 2703,
      "Write": 2704,
      "Ġadj": 2705,
      "Ġdog": 2706,
      "like": 2707,
      "Ġblue": 2708,
      "Ġnav": 2709,
      "Ġproperties": 2710,
      "inks": 2711,
      "Ġequal": 2712,
      "add": 2713,
      "Ġdetails": 2714,
      "Ġargument": 2715,
      "Ġpopular": 2716,
      "Ġpub": 2717,
      "13": 2718,
      "data": 2719,
      "Ġdom": 2720,
      "Ġtree": 2721,
      "Ġwrite": 2722,
      "Ġfamil": 2723,
      "ging": 2724,
      "Ġtechniques": 2725,
      "ply": 2726,
      "Ġgame": 2727,
      "Ġbelieve": 2728,
      "Ġteac": 2729,
      "Ġaccording": 2730,
      "Ġexpert": 2731,
      "Ġoverall": 2732,
      "Ġcat": 2733,
      "Ġreach": 2734,
      "Ġstatement": 2735,
      "aged": 2736,
      "Ġstrugg": 2737,
      "Ġarr": 2738,
      "book": 2739,
      "ware": 2740,
      "cript": 2741,
      "Ġbegan": 2742,
      "ĠAm": 2743,
      "isions": 2744,
      "Ġcondition": 2745,
      "ĠPr": 2746,
      "Ġguid": 2747,
      "ĠEnglish": 2748,
      "Ġpaper": 2749,
      "Ġstudies": 2750,
      "\".": 2751,
      "ret": 2752,
      "Ġsustain": 2753,
      "Ġbar": 2754,
      "But": 2755,
      "file": 2756,
      "resp": 2757,
      "Ġvariables": 2758,
      "Ġexplain": 2759,
      "Ġgard": 2760,
      "Ġcontinue": 2761,
      "Ġdaily": 2762,
      "Ġresearc": 2763,
      "Ġcosts": 2764,
      "hern": 2765,
      "ĠSince": 2766,
      "Ġthroughout": 2767,
      "rast": 2768,
      "Ġconcise": 2769,
      "avor": 2770,
      "Ġdeveloped": 2771,
      "Ġwin": 2772,
      "Ġmass": 2773,
      "ĠWhile": 2774,
      "He": 2775,
      "Ġball": 2776,
      "uel": 2777,
      "Ġast": 2778,
      "Ġlink": 2779,
      "imal": 2780,
      "ried": 2781,
      "Ġactions": 2782,
      "Ġdecision": 2783,
      "Ġcut": 2784,
      "Ġconsist": 2785,
      "Ġchoice": 2786,
      "Ġbound": 2787,
      "input": 2788,
      "Ġmach": 2789,
      "$.": 2790,
      "Ġheav": 2791,
      "het": 2792,
      "elt": 2793,
      "aff": 2794,
      "fficient": 2795,
      "Ġsource": 2796,
      "Ġcreated": 2797,
      "nown": 2798,
      "],": 2799,
      "Ġemotional": 2800,
      "Ġquick": 2801,
      "Ġthinking": 2802,
      "key": 2803,
      "Ġgain": 2804,
      "Ġlab": 2805,
      "Ġcrucial": 2806,
      "gor": 2807,
      "more": 2808,
      "Ġculture": 2809,
      "order": 2810,
      "ithm": 2811,
      "Ġchem": 2812,
      "Ġenj": 2813,
      "Ġproviding": 2814,
      "Ġliter": 2815,
      "Ġcame": 2816,
      "ops": 2817,
      "://": 2818,
      "atives": 2819,
      "Ġcomes": 2820,
      "ĠLe": 2821,
      "aste": 2822,
      "Ġstay": 2823,
      "Ġmanagement": 2824,
      "abit": 2825,
      "ĠWar": 2826,
      "Ġinstead": 2827,
      "17": 2828,
      "Ġphr": 2829,
      "ĠTe": 2830,
      "Ġbelow": 2831,
      "Ġtraining": 2832,
      "Ġencoura": 2833,
      "Ġvisual": 2834,
      "Ġenvironmental": 2835,
      "erson": 2836,
      "apan": 2837,
      "Ġprivate": 2838,
      "Ġincreased": 2839,
      "clusion": 2840,
      "Ġwebs": 2841,
      "Ġmoney": 2842,
      "Ġregular": 2843,
      "Ġhol": 2844,
      "Ġhowever": 2845,
      "Ġfactor": 2846,
      "onstr": 2847,
      "Ġmeasure": 2848,
      "Ġconsidered": 2849,
      "hing": 2850,
      "Ġeval": 2851,
      "Ġroot": 2852,
      "ĠUs": 2853,
      "Ġmoment": 2854,
      "ĠAfric": 2855,
      "Ġwhole": 2856,
      "ony": 2857,
      "Ġgot": 2858,
      "reme": 2859,
      "chan": 2860,
      "Ġwalk": 2861,
      "raw": 2862,
      "ĠYour": 2863,
      "Ġtook": 2864,
      "ĠDes": 2865,
      "Ġbit": 2866,
      "Ġdesigned": 2867,
      "Ġfeatures": 2868,
      "Ġrandom": 2869,
      "Ġapprox": 2870,
      "nal": 2871,
      "ĠWorld": 2872,
      "Ġslow": 2873,
      "umber": 2874,
      "Ġversion": 2875,
      "Ġissue": 2876,
      "Ġleading": 2877,
      "Ġservice": 2878,
      "Ġwhite": 2879,
      "Ġincreasing": 2880,
      "Ġformula": 2881,
      "Ġassociated": 2882,
      "mar": 2883,
      "En": 2884,
      "Ġindustry": 2885,
      "Ġsomeone": 2886,
      "Ġmonths": 2887,
      "uted": 2888,
      "ĠLet": 2889,
      "Ġlot": 2890,
      "Ġprogress": 2891,
      "Ġconstant": 2892,
      "Ġproduce": 2893,
      "erve": 2894,
      "Ġhope": 2895,
      "Ġvariable": 2896,
      "Ġgreater": 2897,
      "rig": 2898,
      "Ġexact": 2899,
      "umn": 2900,
      "Ġwarm": 2901,
      "unc": 2902,
      "left": 2903,
      "And": 2904,
      "Ġdriv": 2905,
      "ager": 2906,
      "ĠMy": 2907,
      "Ġopp": 2908,
      ">[": 2909,
      "Ġsort": 2910,
      "Ġcollabor": 2911,
      "Ġaltern": 2912,
      "Ġservices": 2913,
      "Ġled": 2914,
      "ests": 2915,
      "]</": 2916,
      "ĠAfter": 2917,
      "Ġspir": 2918,
      "Ġnavig": 2919,
      "based": 2920,
      "Ġactually": 2921,
      "med": 2922,
      "unch": 2923,
      "Ġdoesn": 2924,
      "che": 2925,
      "ement": 2926,
      "ounter": 2927,
      "Ġforward": 2928,
      "Ġinteract": 2929,
      "Ġder": 2930,
      "AR": 2931,
      "Ġreturns": 2932,
      "Ġdemonstr": 2933,
      "Ġ24": 2934,
      "hens": 2935,
      "Ġimage": 2936,
      "Ġassum": 2937,
      "ĠEach": 2938,
      "Ġunits": 2939,
      "Ġaccept": 2940,
      "Ġsimply": 2941,
      "sp": 2942,
      "Ġfear": 2943,
      "Ġperspect": 2944,
      "Ġattention": 2945,
      "ĠGen": 2946,
      "ĠGe": 2947,
      "Ġdoing": 2948,
      "const": 2949,
      "ĠVal": 2950,
      "Ġmedic": 2951,
      "Ġfarm": 2952,
      "Ġcountries": 2953,
      "Ġnumer": 2954,
      "Ġaccur": 2955,
      "Ġengaging": 2956,
      "wh": 2957,
      "rug": 2958,
      "ĠGerm": 2959,
      "ners": 2960,
      "Ġvalid": 2961,
      "Ġhelps": 2962,
      "Ġbox": 2963,
      "Ġparts": 2964,
      "Ġtalk": 2965,
      "hood": 2966,
      "Ġsentences": 2967,
      "ditionally": 2968,
      "Pl": 2969,
      "reed": 2970,
      "Ġgoals": 2971,
      "Ġregion": 2972,
      "ules": 2973,
      "Ġexpression": 2974,
      "rew": 2975,
      "ump": 2976,
      "Ã©": 2977,
      "Ġeconomic": 2978,
      "Ġlonger": 2979,
      "Ġanimals": 2980,
      "Ġlimit": 2981,
      "fact": 2982,
      "Ġbuilt": 2983,
      "Ġnetwork": 2984,
      "ES": 2985,
      "ĠJapan": 2986,
      "Ġexerc": 2987,
      "ground": 2988,
      "Ġut": 2989,
      "Ġmiss": 2990,
      "iol": 2991,
      "rie": 2992,
      "Ġpatients": 2993,
      "lict": 2994,
      "Ġcancer": 2995,
      "ields": 2996,
      "Cl": 2997,
      "Ġglobal": 2998,
      "ancial": 2999,
      "Ġpressure": 3000,
      "Ġwid": 3001,
      "Ġstress": 3002,
      "Ġsurround": 3003,
      "First": 3004,
      "oke": 3005,
      "iber": 3006,
      "Ġlat": 3007,
      "Ġincorpor": 3008,
      "abase": 3009,
      "Ġ\\]": 3010,
      "astic": 3011,
      "Ġapplication": 3012,
      "actions": 3013,
      "Ġappear": 3014,
      "mber": 3015,
      "empt": 3016,
      "ĠIntern": 3017,
      "reg": 3018,
      "Ġsil": 3019,
      "Ġindepend": 3020,
      "Ġinsp": 3021,
      "Im": 3022,
      "Ġbase": 3023,
      "Ġsetting": 3024,
      "Ġcommit": 3025,
      "parameters": 3026,
      "su": 3027,
      "oll": 3028,
      "Ġsolve": 3029,
      "Ġinnov": 3030,
      "umb": 3031,
      "Ġpractice": 3032,
      "Ġtrying": 3033,
      "Ġfra": 3034,
      "Ġwa": 3035,
      "Ġquant": 3036,
      "NA": 3037,
      "Ġcompet": 3038,
      "Ġmatter": 3039,
      "ĠAss": 3040,
      "PI": 3041,
      "Ġfollows": 3042,
      "Ġsleep": 3043,
      "ĠAust": 3044,
      "Another": 3045,
      "Ġvide": 3046,
      "clude": 3047,
      "Ġincluded": 3048,
      "Ġitems": 3049,
      "Ġtask": 3050,
      "Ġemerg": 3051,
      "class": 3052,
      "Ġinterpre": 3053,
      "Ġstyle": 3054,
      "Ġreading": 3055,
      "Ġri": 3056,
      "arily": 3057,
      "Ġflu": 3058,
      "asks": 3059,
      "Ġden": 3060,
      "Ġrout": 3061,
      "Ġpair": 3062,
      "Ġinsights": 3063,
      "Ġnarrative": 3064,
      "Ġsite": 3065,
      "ached": 3066,
      "Ġtrack": 3067,
      "ĠMan": 3068,
      "Ġseems": 3069,
      "Ġimportance": 3070,
      "Ġprep": 3071,
      "ameter": 3072,
      "Ġmis": 3073,
      "ĠMon": 3074,
      "cks": 3075,
      "Ġattack": 3076,
      "Ġselect": 3077,
      "yond": 3078,
      "Ġnegative": 3079,
      "Ġchoose": 3080,
      "ae": 3081,
      "Ġer": 3082,
      "Ġrich": 3083,
      "Ġste": 3084,
      "Ġ197": 3085,
      "Ġenjoy": 3086,
      "Ġgeomet": 3087,
      "enced": 3088,
      "hel": 3089,
      "Ġwond": 3090,
      "Ġmedical": 3091,
      "Ġenh": 3092,
      "Ġtransport": 3093,
      "Ġyourself": 3094,
      "Ġcomputer": 3095,
      "ober": 3096,
      "Ġstories": 3097,
      "Ġlibr": 3098,
      "Ġopportunities": 3099,
      "Ġfoot": 3100,
      "However": 3101,
      "Ġobjects": 3102,
      "##": 3103,
      "Ġseek": 3104,
      "que": 3105,
      "Ġstarted": 3106,
      "Ġprice": 3107,
      "rate": 3108,
      "Ġcompon": 3109,
      "Ġforms": 3110,
      "Ġfram": 3111,
      "Ġdisplay": 3112,
      "Ġpolitical": 3113,
      "?\"": 3114,
      "izes": 3115,
      "acter": 3116,
      "Ġpoly": 3117,
      "Ġcompan": 3118,
      "arguments": 3119,
      "Ġnamed": 3120,
      "ister": 3121,
      "rix": 3122,
      "oved": 3123,
      "ĠWest": 3124,
      "Ġtraditional": 3125,
      "Ġinstance": 3126,
      "Ġsociety": 3127,
      "Ġstop": 3128,
      "Ġestablish": 3129,
      "ĠNorth": 3130,
      "bo": 3131,
      "adem": 3132,
      "Ġmemory": 3133,
      "ĠDo": 3134,
      "enge": 3135,
      "Ġperfect": 3136,
      "itor": 3137,
      ".)": 3138,
      "load": 3139,
      "Ġnut": 3140,
      "Ġsequence": 3141,
      "ura": 3142,
      "Ġlost": 3143,
      "ĠMar": 3144,
      "default": 3145,
      "Ġtend": 3146,
      "Ġefficient": 3147,
      "Ġbasic": 3148,
      "ils": 3149,
      "Ġpack": 3150,
      "Ġcritical": 3151,
      "Ġfish": 3152,
      "ynam": 3153,
      "Ġearth": 3154,
      "Ġmechan": 3155,
      "EN": 3156,
      "Ġsample": 3157,
      "Ġrecent": 3158,
      "agon": 3159,
      "Ġtrees": 3160,
      "Em": 3161,
      "Ġpage": 3162,
      "Ġvoice": 3163,
      "Ġtrain": 3164,
      "Ġincludes": 3165,
      "Ġpowerful": 3166,
      "Ġregard": 3167,
      "lam": 3168,
      "opy": 3169,
      "ensive": 3170,
      "Ġallowing": 3171,
      "Ġreality": 3172,
      "vant": 3173,
      "Ġharm": 3174,
      "ĠSouth": 3175,
      "Ġdeb": 3176,
      "ptoms": 3177,
      "Ġcontains": 3178,
      "Ġinj": 3179,
      "Ġrat": 3180,
      "Ġsurv": 3181,
      "Ġfire": 3182,
      "Ġthing": 3183,
      "Ġnormal": 3184,
      "On": 3185,
      "Ġstra": 3186,
      "Ġinfluence": 3187,
      "Ġ--": 3188,
      "iam": 3189,
      "Ġdirectly": 3190,
      "Ġadded": 3191,
      "Ġfit": 3192,
      "izations": 3193,
      "Ġlines": 3194,
      "ĠAre": 3195,
      "Ġpropos": 3196,
      "Ġunc": 3197,
      "Ġinvestig": 3198,
      "ĠDep": 3199,
      "Us": 3200,
      "Ġwild": 3201,
      "Ġoptions": 3202,
      "Ġalgor": 3203,
      "Ġreader": 3204,
      "Ġmental": 3205,
      "Ġimag": 3206,
      "Ġtemperature": 3207,
      "arity": 3208,
      "bon": 3209,
      "view": 3210,
      "Ġnational": 3211,
      "Ġsituation": 3212,
      "Ġpict": 3213,
      "Ġaudience": 3214,
      "Ġshows": 3215,
      "arn": 3216,
      "ĠAcc": 3217,
      "':": 3218,
      "aly": 3219,
      "Ġlarger": 3220,
      "ĠMr": 3221,
      "urch": 3222,
      "ulate": 3223,
      "Ġassess": 3224,
      "Ġgoal": 3225,
      "ulations": 3226,
      "Ġarticle": 3227,
      "lection": 3228,
      "acity": 3229,
      "Ġcateg": 3230,
      "Ġadapt": 3231,
      "icles": 3232,
      "Ġspread": 3233,
      "Ġconsequ": 3234,
      "Ġresearchers": 3235,
      "Ġdetect": 3236,
      "Ġcommunication": 3237,
      "ictionary": 3238,
      "Ġoutside": 3239,
      "Ġsimpl": 3240,
      "amin": 3241,
      "bor": 3242,
      "Ġstack": 3243,
      "Ġsus": 3244,
      "met": 3245,
      "vere": 3246,
      "rought": 3247,
      "Ġstrength": 3248,
      "ĠQu": 3249,
      "Ġbecomes": 3250,
      "ese": 3251,
      "Ġsources": 3252,
      "where": 3253,
      "Ġmid": 3254,
      "ĠInst": 3255,
      "ĠStud": 3256,
      "Ġgetting": 3257,
      "Ġemployees": 3258,
      "Ġweb": 3259,
      "Ġgas": 3260,
      "roduct": 3261,
      "Ġskin": 3262,
      "Ġfinancial": 3263,
      "ĠAmerica": 3264,
      "Ġdocument": 3265,
      "Ġrequires": 3266,
      "erate": 3267,
      "Ġquite": 3268,
      "Ġpredict": 3269,
      "Ġpsych": 3270,
      "Ġprinci": 3271,
      ")^": 3272,
      "Ġtru": 3273,
      "itch": 3274,
      "isf": 3275,
      "ĠPres": 3276,
      "Ġextreme": 3277,
      "Ġemail": 3278,
      "ceed": 3279,
      "Ġrespond": 3280,
      "With": 3281,
      "ĠHer": 3282,
      "Ġscientific": 3283,
      "Ġsides": 3284,
      "Ġwritten": 3285,
      "enue": 3286,
      "Ġthreat": 3287,
      "Ġinvolves": 3288,
      "Ġep": 3289,
      "Ġdefin": 3290,
      "year": 3291,
      "Ġdivid": 3292,
      "Ġbul": 3293,
      "Ġful": 3294,
      "Ġdecl": 3295,
      "Ġ!": 3296,
      "Ġrights": 3297,
      "Ġsymbol": 3298,
      "Ġhands": 3299,
      "eper": 3300,
      "Ġtax": 3301,
      "Ġconduct": 3302,
      "cos": 3303,
      "org": 3304,
      "{\\": 3305,
      "Ġadult": 3306,
      "ief": 3307,
      "Ġeasy": 3308,
      "ĠTra": 3309,
      "Ġleaves": 3310,
      "Ġparents": 3311,
      "Ġoperations": 3312,
      "Ġemb": 3313,
      "phas": 3314,
      "22": 3315,
      "Ġmicro": 3316,
      "ype": 3317,
      "Ġhistorical": 3318,
      "Ġconflict": 3319,
      "Ġcamp": 3320,
      "sqrt": 3321,
      "Ġeffectively": 3322,
      "Ġstarting": 3323,
      "Ġplease": 3324,
      "Ġalmost": 3325,
      "Ġworth": 3326,
      "Ġprograms": 3327,
      "atform": 3328,
      "LA": 3329,
      "ai": 3330,
      "Ġtruth": 3331,
      "Ġforce": 3332,
      "'.": 3333,
      "idden": 3334,
      "point": 3335,
      "itect": 3336,
      "Ġspeak": 3337,
      "Ġinteger": 3338,
      "Ġfundam": 3339,
      "mosp": 3340,
      "oration": 3341,
      "Ġdiet": 3342,
      "agraph": 3343,
      "Ġsafe": 3344,
      "Ġfat": 3345,
      "curity": 3346,
      "Ġinvolved": 3347,
      "Ġsea": 3348,
      "Ġmotiv": 3349,
      "Ġprime": 3350,
      "ĠInt": 3351,
      "Ġprofessional": 3352,
      "Ġheat": 3353,
      "Ġtou": 3354,
      "Ġdream": 3355,
      "Ġcover": 3356,
      "ios": 3357,
      "Ġaim": 3358,
      "overy": 3359,
      "reet": 3360,
      "Ġbeyond": 3361,
      "ervation": 3362,
      "Ġlocation": 3363,
      "Ġthoughts": 3364,
      "Ġpiece": 3365,
      "term": 3366,
      "`,": 3367,
      "Ġsix": 3368,
      "Ġhost": 3369,
      "ĠFl": 3370,
      "ĠBritish": 3371,
      "ĠNo": 3372,
      "\"]": 3373,
      "Ġones": 3374,
      "ĠRep": 3375,
      "100": 3376,
      "cean": 3377,
      "Ġclim": 3378,
      "Ġcivil": 3379,
      "plications": 3380,
      "Ġadjust": 3381,
      "Ġcontact": 3382,
      "ban": 3383,
      "ĠHealth": 3384,
      "anger": 3385,
      "stitute": 3386,
      "uff": 3387,
      "Ġindex": 3388,
      "Ġcompre": 3389,
      "Ġattempt": 3390,
      "Ġcenter": 3391,
      "Ġvill": 3392,
      "Ġcorresp": 3393,
      "ID": 3394,
      "iful": 3395,
      "Ġbreat": 3396,
      "ĠOut": 3397,
      "ero": 3398,
      "ĠGu": 3399,
      "Ġnode": 3400,
      "Ġcard": 3401,
      "encies": 3402,
      "Ġsy": 3403,
      "next": 3404,
      "ger": 3405,
      "Ġemotions": 3406,
      "Ġdrug": 3407,
      "Ġseason": 3408,
      "odes": 3409,
      "eks": 3410,
      "Ġfru": 3411,
      "Ġremember": 3412,
      "Ġevalu": 3413,
      "Ġdate": 3414,
      "ography": 3415,
      "ln": 3416,
      "Ġgives": 3417,
      "Ġshape": 3418,
      "ĠCont": 3419,
      "Ġcustomer": 3420,
      "Ġdepth": 3421,
      "ĠÂ": 3422,
      "Ġcross": 3423,
      "Ġhor": 3424,
      "ĠTherefore": 3425,
      "Ġ:=": 3426,
      "rim": 3427,
      "Ġclean": 3428,
      "Ġsymptoms": 3429,
      "Ġwood": 3430,
      "ĠNow": 3431,
      "Ġaccurate": 3432,
      "rench": 3433,
      "[]": 3434,
      "Ġhealthy": 3435,
      "Ġir": 3436,
      "Ġisland": 3437,
      "ellig": 3438,
      "Ġprimary": 3439,
      "Ġballs": 3440,
      "ilos": 3441,
      "idge": 3442,
      "Ġweather": 3443,
      "Ġmix": 3444,
      "ĠPar": 3445,
      "Ġcultural": 3446,
      "ĠĠĠĠĠĠĠĠĠĠĠĠĠĠĠĠĠĠĠ": 3447,
      "fl": 3448,
      "ĠDis": 3449,
      "Ġsafety": 3450,
      "Ġpublished": 3451,
      "Ġproduced": 3452,
      "Ġremains": 3453,
      "Ġlif": 3454,
      "Ġaware": 3455,
      "Ġreaders": 3456,
      "Ġcareer": 3457,
      "ĠPe": 3458,
      "Last": 3459,
      "Ġpick": 3460,
      "ĠAct": 3461,
      "ĠCar": 3462,
      "Ġdistinct": 3463,
      "Ġsomet": 3464,
      "Ġstrategies": 3465,
      "mat": 3466,
      "eful": 3467,
      "Ġapproximately": 3468,
      "ued": 3469,
      "Ġtim": 3470,
      "}\\": 3471,
      "ĠEl": 3472,
      "Ġparagraph": 3473,
      "Ġdigital": 3474,
      "sole": 3475,
      "Ġwebsite": 3476,
      "ĠState": 3477,
      "anc": 3478,
      "Ġdeveloping": 3479,
      "ĠMe": 3480,
      "Ġjo": 3481,
      "inating": 3482,
      "Ġnote": 3483,
      "Ġgarden": 3484,
      "itable": 3485,
      "AS": 3486,
      "Ġsales": 3487,
      "ĠHist": 3488,
      "Ġsatisf": 3489,
      "Ġhot": 3490,
      "Ġessay": 3491,
      "itation": 3492,
      "col": 3493,
      "Ġmodels": 3494,
      "ellow": 3495,
      "Ġmaximum": 3496,
      "ares": 3497,
      "rel": 3498,
      "Ġinstall": 3499,
      "Ġtrend": 3500,
      "Ġappl": 3501,
      "argument": 3502,
      "Ġdynam": 3503,
      "Ġ198": 3504,
      "bit": 3505,
      "att": 3506,
      "Ġplatform": 3507,
      "Ġcommand": 3508,
      "ender": 3509,
      "json": 3510,
      "Ġbud": 3511,
      "Ġmother": 3512,
      "Ġord": 3513,
      "Ġtypically": 3514,
      "math": 3515,
      "ying": 3516,
      "Ġcry": 3517,
      "Ġexamples": 3518,
      "illing": 3519,
      "mary": 3520,
      "Ġbroad": 3521,
      "21": 3522,
      "cles": 3523,
      "eter": 3524,
      "Ġimmedi": 3525,
      "ĠChe": 3526,
      "Ġraise": 3527,
      "Ġproperty": 3528,
      "node": 3529,
      "Ġcustomers": 3530,
      "Ġatmosp": 3531,
      "Ġhimself": 3532,
      "Ġsuff": 3533,
      "Ġid": 3534,
      "known": 3535,
      "Ġhous": 3536,
      "ĠCo": 3537,
      "Ġleaders": 3538,
      "Ad": 3539,
      "Ġgrowing": 3540,
      "Ġtrip": 3541,
      "Ġscri": 3542,
      "Ġinside": 3543,
      "Ġdecisions": 3544,
      "ĠDef": 3545,
      "Ġapplications": 3546,
      "Ġscript": 3547,
      "ĠThen": 3548,
      "Ġsolutions": 3549,
      "Ġshap": 3550,
      "')": 3551,
      "Ġmount": 3552,
      "Ġoil": 3553,
      "Ġstri": 3554,
      "Ġeye": 3555,
      "gra": 3556,
      "ĠApp": 3557,
      "Ġrob": 3558,
      "pass": 3559,
      "Ġexec": 3560,
      "Ġextra": 3561,
      "ptions": 3562,
      "mb": 3563,
      "Ġshown": 3564,
      "LE": 3565,
      "Ġ\\[": 3566,
      "Ġwent": 3567,
      "Ġmagn": 3568,
      "ades": 3569,
      "Ġ\\)": 3570,
      "Ġtasks": 3571,
      "Ġlate": 3572,
      "Can": 3573,
      "Ġviol": 3574,
      "Ġinvolve": 3575,
      "Your": 3576,
      "ĠPlease": 3577,
      "iency": 3578,
      "Ġcred": 3579,
      "pri": 3580,
      "eration": 3581,
      "ĠSu": 3582,
      "Ġearl": 3583,
      "ene": 3584,
      "Ġ!=": 3585,
      "Ġguide": 3586,
      "ana": 3587,
      "arrow": 3588,
      "Ġpresence": 3589,
      "Ġuseful": 3590,
      "Ġplot": 3591,
      "ologies": 3592,
      "wise": 3593,
      "Ġter": 3594,
      "Ġsets": 3595,
      "45": 3596,
      "iff": 3597,
      "Ġmovement": 3598,
      "Ġpurch": 3599,
      "Ġeveryone": 3600,
      "Ġded": 3601,
      "Ġcentral": 3602,
      "Ġrelig": 3603,
      "Ġactive": 3604,
      "Ġrow": 3605,
      "Ġdecre": 3606,
      "cast": 3607,
      "99": 3608,
      "Ġvirt": 3609,
      "Ġsometimes": 3610,
      "Ġweeks": 3611,
      "Ġsold": 3612,
      "weet": 3613,
      "Ġgrand": 3614,
      "Ġscientists": 3615,
      "imize": 3616,
      "ided": 3617,
      "osis": 3618,
      "ĠEd": 3619,
      "Ġhandle": 3620,
      "ĠCity": 3621,
      "hold": 3622,
      "inate": 3623,
      "Ġplanning": 3624,
      "Ġwoman": 3625,
      "Ġfavor": 3626,
      "Ġchallenge": 3627,
      "Ġpatient": 3628,
      "Ġpolicy": 3629,
      "Ġfundamental": 3630,
      "func": 3631,
      "Ġdatabase": 3632,
      "date": 3633,
      "Ġitem": 3634,
      "Ġchemical": 3635,
      "Ġroad": 3636,
      "Ġobtain": 3637,
      "Com": 3638,
      "ĠSim": 3639,
      "Ġsmaller": 3640,
      "Ġeverything": 3641,
      "[\"": 3642,
      "Ġvoid": 3643,
      "cell": 3644,
      "Ġheld": 3645,
      "Ġcook": 3646,
      "ounds": 3647,
      "comes": 3648,
      "Ġrecommend": 3649,
      "box": 3650,
      "ĠWill": 3651,
      "Ġcomprehens": 3652,
      "iverse": 3653,
      "ĠAg": 3654,
      "Ġdeeper": 3655,
      "cd": 3656,
      "asons": 3657,
      "Ġmagic": 3658,
      "Ġrefer": 3659,
      "Ġsuggests": 3660,
      "Ġoffers": 3661,
      "Ġexpected": 3662,
      "rapy": 3663,
      "These": 3664,
      "ĠNone": 3665,
      "ifying": 3666,
      "from": 3667,
      "rated": 3668,
      "Ġtour": 3669,
      "Ġsecurity": 3670,
      "aur": 3671,
      "ĠMU": 3672,
      "Ġfeeling": 3673,
      "Ġspirit": 3674,
      "Ġintegers": 3675,
      "Ġmention": 3676,
      "ding": 3677,
      "ĠRet": 3678,
      "ilitary": 3679,
      "Ġleave": 3680,
      "Ġpromot": 3681,
      "ĠFe": 3682,
      "Ġund": 3683,
      "room": 3684,
      "oe": 3685,
      "Ġaspects": 3686,
      "Ġadding": 3687,
      "ĠKing": 3688,
      "isms": 3689,
      "Ġcomplexity": 3690,
      "ĠJew": 3691,
      "iar": 3692,
      "Ġelectric": 3693,
      "Ġschools": 3694,
      "Ġreveal": 3695,
      "Ġchat": 3696,
      "number": 3697,
      "ĠConsider": 3698,
      "Ġresid": 3699,
      "Ġdescribe": 3700,
      "ederal": 3701,
      "Ġstructures": 3702,
      "Ġhyp": 3703,
      "irm": 3704,
      "Acc": 3705,
      "Ġappre": 3706,
      "Ġopportunity": 3707,
      "life": 3708,
      "Ġtone": 3709,
      "Ġsex": 3710,
      "Ġofficial": 3711,
      "ternal": 3712,
      "ĠAustral": 3713,
      "24": 3714,
      "ĠII": 3715,
      "Ġestim": 3716,
      "Ġgraph": 3717,
      "Ġwatch": 3718,
      "eds": 3719,
      "Ġhttp": 3720,
      "Ġnews": 3721,
      "minist": 3722,
      "ously": 3723,
      "Ġmiddle": 3724,
      "Ġsection": 3725,
      "Ġfem": 3726,
      "Ġheight": 3727,
      "cont": 3728,
      "yl": 3729,
      "Ġlimited": 3730,
      "Ġvariety": 3731,
      "Ġcaused": 3732,
      "Ġfields": 3733,
      "String": 3734,
      "AN": 3735,
      "uable": 3736,
      "Ġ%": 3737,
      "Ġcompanies": 3738,
      "ĠAlex": 3739,
      "ession": 3740,
      "Ġetc": 3741,
      "Ġconver": 3742,
      "ĠReg": 3743,
      "Ġexactly": 3744,
      "ctors": 3745,
      "Ġsoon": 3746,
      "Ġparameters": 3747,
      "Ġdirection": 3748,
      "Ġcapacity": 3749,
      "Ġcos": 3750,
      "Ġhon": 3751,
      "Ġparameter": 3752,
      "Ġconstruct": 3753,
      "Ġconcepts": 3754,
      "ĠTw": 3755,
      "Ġcontaining": 3756,
      "ĠMin": 3757,
      "Ġtheore": 3758,
      "Ġinteresting": 3759,
      "Ġrepresents": 3760,
      "Ġfront": 3761,
      "ferences": 3762,
      "ĠCanad": 3763,
      "Ġcombination": 3764,
      "anks": 3765,
      "List": 3766,
      "ĠIr": 3767,
      "Ġunit": 3768,
      "tools": 3769,
      "Ġdim": 3770,
      "duc": 3771,
      "ĠNO": 3772,
      "Ġbeginning": 3773,
      "ĠRev": 3774,
      "rial": 3775,
      "Ġtests": 3776,
      "Ġbirth": 3777,
      "lim": 3778,
      "Ġdatas": 3779,
      "Ġblock": 3780,
      "Ġcauses": 3781,
      "ĠResearch": 3782,
      "aught": 3783,
      "ĠHar": 3784,
      "Ġsoil": 3785,
      "object": 3786,
      "Ġemphas": 3787,
      "Ġ80": 3788,
      "Ġrunning": 3789,
      "Ġwhose": 3790,
      "Ġâī": 3791,
      "Ġult": 3792,
      "ucle": 3793,
      "Ġpractices": 3794,
      "Ġdamage": 3795,
      "Ġfuel": 3796,
      "Ġdepend": 3797,
      "Ġsoftware": 3798,
      "pper": 3799,
      "Ġgenerate": 3800,
      "Ġresponses": 3801,
      "ĠPart": 3802,
      "ĠFrench": 3803,
      "Ġreceived": 3804,
      "Ġwon": 3805,
      "Ġexcept": 3806,
      "Ġfinding": 3807,
      "ĠMUST": 3808,
      "Ġtold": 3809,
      "Ġarchitect": 3810,
      "CT": 3811,
      "Ġvideo": 3812,
      "Ġdouble": 3813,
      "500": 3814,
      "Re": 3815,
      "orks": 3816,
      "Ġhidden": 3817,
      "Ġnames": 3818,
      "Ġdead": 3819,
      "Ġfasc": 3820,
      "Ġquickly": 3821,
      "Ġking": 3822,
      "Ġexploring": 3823,
      "Ġmathematics": 3824,
      "Ġgenerally": 3825,
      "Ġgir": 3826,
      "Ġimplementation": 3827,
      "sum": 3828,
      "ĠFirst": 3829,
      "Ġstrategy": 3830,
      "iable": 3831,
      "Ġexisting": 3832,
      "Ġkids": 3833,
      "Plan": 3834,
      "uild": 3835,
      "Ġrain": 3836,
      "Ġinterpret": 3837,
      "ronic": 3838,
      "Res": 3839,
      "].": 3840,
      "eries": 3841,
      "Ġmeeting": 3842,
      "Ġdictionary": 3843,
      "ĠSm": 3844,
      "Ġanything": 3845,
      "><|": 3846,
      "olic": 3847,
      "Ġrelevant": 3848,
      "bing": 3849,
      "Ġfigure": 3850,
      "Ġlandsc": 3851,
      "uries": 3852,
      "abet": 3853,
      "cal": 3854,
      "33": 3855,
      "Ġexhib": 3856,
      "Ġanimal": 3857,
      "Ġsaw": 3858,
      "Ġbank": 3859,
      "odies": 3860,
      "Ġinterested": 3861,
      "ancy": 3862,
      "Ġdemand": 3863,
      "tr": 3864,
      "++": 3865,
      "Ġvict": 3866,
      "Ġplanet": 3867,
      "--------": 3868,
      "Ġcraft": 3869,
      "Ġfun": 3870,
      "Ġsolar": 3871,
      "Ġmathematical": 3872,
      "Ġlargest": 3873,
      "alle": 3874,
      "Ġeat": 3875,
      "Ġsuccessful": 3876,
      "Ġeasily": 3877,
      "Ġstatist": 3878,
      "ĠâĪ": 3879,
      "Ġconversation": 3880,
      "Ġhar": 3881,
      "ĠDav": 3882,
      "Ġremaining": 3883,
      "Next": 3884,
      "Ġcatch": 3885,
      "Ar": 3886,
      "Ġformal": 3887,
      "Ġsubst": 3888,
      "Ġhumans": 3889,
      "iring": 3890,
      "sect": 3891,
      "oud": 3892,
      "Ġhighly": 3893,
      "bl": 3894,
      "Ġserious": 3895,
      "Ġidentity": 3896,
      "mod": 3897,
      "Ġconsequences": 3898,
      "ricult": 3899,
      "zz": 3900,
      "atus": 3901,
      "Ġfast": 3902,
      "Ġbudget": 3903,
      "Ġconsidering": 3904,
      "Ġreported": 3905,
      "Ġappreci": 3906,
      "ech": 3907,
      "Ġchance": 3908,
      "Ġjud": 3909,
      "inated": 3910,
      "writ": 3911,
      "Ġbur": 3912,
      "Ġrates": 3913,
      "Ġintellig": 3914,
      "Ġfeedback": 3915,
      ">[{\"": 3916,
      "Ġago": 3917,
      "Ġstatic": 3918,
      "pi": 3919,
      "Ġcircle": 3920,
      "Ġexercise": 3921,
      "Ġgold": 3922,
      "ĠMany": 3923,
      "Ġcarry": 3924,
      "ĠPre": 3925,
      "Ġsec": 3926,
      "Ġefforts": 3927,
      "\\[": 3928,
      "Ġdifferences": 3929,
      "ament": 3930,
      "Ġworkers": 3931,
      "Ġveh": 3932,
      "Ġclos": 3933,
      "lete": 3934,
      "onic": 3935,
      "Ġimages": 3936,
      "Ġsummary": 3937,
      "Ġpossib": 3938,
      "Ġcommunities": 3939,
      "Ġmachine": 3940,
      "Ġuniverse": 3941,
      "Ġshared": 3942,
      "Ġfair": 3943,
      "\");": 3944,
      "Ġfather": 3945,
      "Ġserver": 3946,
      "Ġlibrary": 3947,
      "Ġcities": 3948,
      "Ġgram": 3949,
      "pec": 3950,
      "Ġrevenue": 3951,
      "Ġrepl": 3952,
      "ET": 3953,
      "Ġ__": 3954,
      "New": 3955,
      "Ġprocesses": 3956,
      "Ġdiagn": 3957,
      "tra": 3958,
      "Ġcollection": 3959,
      "Des": 3960,
      "Ġinternational": 3961,
      "Ġperhaps": 3962,
      "Ġalternative": 3963,
      "Ġox": 3964,
      "Ġconclusion": 3965,
      "Ġreasoning": 3966,
      "Ġcou": 3967,
      "Ġfocusing": 3968,
      "ey": 3969,
      "Since": 3970,
      "Ġassistant": 3971,
      "Ġestablished": 3972,
      "Ġperspective": 3973,
      "ĠCount": 3974,
      "rief": 3975,
      "Ġcorrespond": 3976,
      "Ġpow": 3977,
      "Ġbeautiful": 3978,
      "Ġasked": 3979,
      "Ġphilos": 3980,
      "Ġnothing": 3981,
      "ufact": 3982,
      "Ġhabit": 3983,
      "ĠAb": 3984,
      "Ġprojects": 3985,
      "Ġfight": 3986,
      "rees": 3987,
      "Ġdefined": 3988,
      "Ġfresh": 3989,
      "Ġcompared": 3990,
      "âĢ¦": 3991,
      "->": 3992,
      "pped": 3993,
      "Ġcolumn": 3994,
      "Ġfamilies": 3995,
      "Ġisn": 3996,
      "Ġconcerns": 3997,
      "Ġmeters": 3998,
      "Ġpeace": 3999,
      "Ġdrive": 4000,
      "hest": 4001,
      "Ġillust": 4002,
      "Ġdial": 4003,
      "Ġcomfort": 4004,
      "Ġpoor": 4005,
      "Ġrule": 4006,
      "ĠMus": 4007,
      "Ġcit": 4008,
      "Ġexpand": 4009,
      "Ġimplications": 4010,
      "evidence": 4011,
      "Ġice": 4012,
      "ipment": 4013,
      "Ġnovel": 4014,
      "Ġthr": 4015,
      "Ġconvey": 4016,
      "Ġcele": 4017,
      "ĠÎ": 4018,
      "Ġmanage": 4019,
      "Ġfilled": 4020,
      "Ġrepe": 4021,
      "Ġ21": 4022,
      "gram": 4023,
      "ha": 4024,
      "ham": 4025,
      "uary": 4026,
      "ĠÃ": 4027,
      "Ġneigh": 4028,
      "ĠNe": 4029,
      "Ġdrink": 4030,
      "Name": 4031,
      "Ġcam": 4032,
      "zing": 4033,
      "abilities": 4034,
      "Ġletter": 4035,
      "ecause": 4036,
      "`.": 4037,
      "plain": 4038,
      "Ġglass": 4039,
      "ashing": 4040,
      "23": 4041,
      "Ġmilitary": 4042,
      "Ġpassion": 4043,
      "Ġsummer": 4044,
      "Ġorganization": 4045,
      "Ġtouch": 4046,
      "RO": 4047,
      "Ġfamous": 4048,
      "Ġtrust": 4049,
      "Lastly": 4050,
      "Ġveget": 4051,
      "ensity": 4052,
      "AL": 4053,
      "ĠAv": 4054,
      "ought": 4055,
      "Ġoutcomes": 4056,
      "Ġbrought": 4057,
      "Ġlabor": 4058,
      "Ġindeed": 4059,
      "ht": 4060,
      "ĠNode": 4061,
      "Ġvast": 4062,
      "Ġcapital": 4063,
      "emember": 4064,
      "na": 4065,
      "used": 4066,
      "ĠNot": 4067,
      "othes": 4068,
      "Is": 4069,
      "igned": 4070,
      "Ġapproaches": 4071,
      "pid": 4072,
      "Ġsignificantly": 4073,
      "Ġserve": 4074,
      "ĠSchool": 4075,
      "Ġconcent": 4076,
      "Ġhear": 4077,
      "Ġadvent": 4078,
      "90": 4079,
      "Ġ=>": 4080,
      "ĠComp": 4081,
      "gebra": 4082,
      "At": 4083,
      "Ġspent": 4084,
      "Ġcarbon": 4085,
      "Ġenhance": 4086,
      "gar": 4087,
      "olute": 4088,
      "ĠJu": 4089,
      "Ġemp": 4090,
      "Ġwat": 4091,
      "ams": 4092,
      "ĠJava": 4093,
      "Ġcool": 4094,
      "ocial": 4095,
      "Ġcolors": 4096,
      "Ġflo": 4097,
      "Ġpoll": 4098,
      "Ġtesting": 4099,
      "Ġadvanced": 4100,
      "Ġaccom": 4101,
      "Ġfalse": 4102,
      "Ġapples": 4103,
      "pha": 4104,
      "Ġremind": 4105,
      "ping": 4106,
      "Ġatmosphere": 4107,
      "water": 4108,
      "Ġ2012": 4109,
      "Ġinfin": 4110,
      "rong": 4111,
      "Ġpan": 4112,
      "75": 4113,
      "Ġwit": 4114,
      "usion": 4115,
      "osition": 4116,
      "Ġ90": 4117,
      "Ġconnections": 4118,
      "ĠScience": 4119,
      "IT": 4120,
      "gy": 4121,
      "Ġstatus": 4122,
      "Ġmarketing": 4123,
      "Ġindependent": 4124,
      "Ġnation": 4125,
      "Ġappears": 4126,
      "Ġmatch": 4127,
      "64": 4128,
      "Ġgradu": 4129,
      "oming": 4130,
      "Ġthus": 4131,
      "gment": 4132,
      "ken": 4133,
      "ogle": 4134,
      "ocal": 4135,
      "De": 4136,
      "Ġcast": 4137,
      "Ġappropri": 4138,
      "]:": 4139,
      "Ġfix": 4140,
      "Ġthous": 4141,
      "Ġbad": 4142,
      "orage": 4143,
      "ille": 4144,
      "Ġenter": 4145,
      "Ġegg": 4146,
      "Ġpark": 4147,
      "Ġachie": 4148,
      "ĠDepartment": 4149,
      "Ġtruly": 4150,
      "Ġroots": 4151,
      "ĠChina": 4152,
      "Ġdidn": 4153,
      "\\'": 4154,
      "Ġburn": 4155,
      "Ġtriangle": 4156,
      "Ġadop": 4157,
      "Ġready": 4158,
      "Ġseparate": 4159,
      "vide": 4160,
      "off": 4161,
      "ilk": 4162,
      "Ġdry": 4163,
      "uge": 4164,
      "Ġkn": 4165,
      "oly": 4166,
      "ĠRed": 4167,
      "ĠGra": 4168,
      "Ġcand": 4169,
      "ded": 4170,
      "ocol": 4171,
      "Ġnu": 4172,
      "Ġ2010": 4173,
      "Ġson": 4174,
      "Ġweak": 4175,
      "Ġtopic": 4176,
      "Ġprop": 4177,
      "Ġplaces": 4178,
      "Ġteachers": 4179,
      "enses": 4180,
      "Ġship": 4181,
      "Ġing": 4182,
      "ifically": 4183,
      "Ġcontrast": 4184,
      "Ġlinear": 4185,
      "Ġanalyze": 4186,
      "Ġ\"\"": 4187,
      "Ġdetailed": 4188,
      "Ġstage": 4189,
      "ache": 4190,
      "ĠMore": 4191,
      "Ġque": 4192,
      "Ġsecret": 4193,
      "rs": 4194,
      "Ġapply": 4195,
      "70": 4196,
      "ĠGree": 4197,
      "Ġincreases": 4198,
      "Ġsustainable": 4199,
      "Ġfa": 4200,
      "Ġphysics": 4201,
      "Ġforces": 4202,
      "Ġinstit": 4203,
      "ĠArt": 4204,
      "Ġbeauty": 4205,
      "Ġratio": 4206,
      "Ġphen": 4207,
      "Ġtransition": 4208,
      "Ġwaste": 4209,
      "Ġcontinued": 4210,
      "Ġtitle": 4211,
      "(\\": 4212,
      "Ġmoving": 4213,
      "Ġdeal": 4214,
      "ntic": 4215,
      "Ġconnected": 4216,
      "Ġmagical": 4217,
      "Ġdiscover": 4218,
      "Ġsounds": 4219,
      "ara": 4220,
      "Ġborn": 4221,
      "ĠEast": 4222,
      "Ġprobably": 4223,
      "Ġrh": 4224,
      "inter": 4225,
      "Ġrare": 4226,
      "Ġcoord": 4227,
      "ondon": 4228,
      "QL": 4229,
      "array": 4230,
      "Ġrise": 4231,
      "Ġdedic": 4232,
      "anging": 4233,
      "Ġsett": 4234,
      "Ġstream": 4235,
      "Ġchanged": 4236,
      "Ġvac": 4237,
      "ĠJan": 4238,
      "Ġacadem": 4239,
      "anges": 4240,
      "Ġrock": 4241,
      "ĠDevelop": 4242,
      "Ġusage": 4243,
      "Ġsky": 4244,
      "www": 4245,
      "Ġvit": 4246,
      "Ġmanufact": 4247,
      "vention": 4248,
      "Best": 4249,
      "inations": 4250,
      "account": 4251,
      "irect": 4252,
      "Ġstaff": 4253,
      "Ġdevice": 4254,
      "ta": 4255,
      "Ġnone": 4256,
      "Ġfindings": 4257,
      "Un": 4258,
      "perties": 4259,
      "culate": 4260,
      "Ġrecently": 4261,
      "Ġboard": 4262,
      "Ġdescribed": 4263,
      "Ġload": 4264,
      "Ġhyd": 4265,
      "ĠFrom": 4266,
      "Ġmeasures": 4267,
      "IS": 4268,
      "erver": 4269,
      "Ġbacter": 4270,
      "Ġdiscovered": 4271,
      "Ġvaluable": 4272,
      "ĠAc": 4273,
      "Ġrules": 4274,
      "iter": 4275,
      "Ġfelt": 4276,
      "Ġplans": 4277,
      "())": 4278,
      "Ġmultip": 4279,
      "vest": 4280,
      "ĠCreate": 4281,
      "Ġactual": 4282,
      "hetic": 4283,
      "Ġclarity": 4284,
      "ira": 4285,
      "Ġdoctor": 4286,
      "Ġattract": 4287,
      "Ġcoe": 4288,
      "36": 4289,
      "olve": 4290,
      "Ġnavigate": 4291,
      "Ġdoor": 4292,
      "error": 4293,
      "Finally": 4294,
      "Ġlinks": 4295,
      "Ġspect": 4296,
      "Ġconstruction": 4297,
      "Node": 4298,
      "ĠAPI": 4299,
      "Ġearlier": 4300,
      "Ġalone": 4301,
      "size": 4302,
      "iny": 4303,
      "ĠTheir": 4304,
      "Ġshall": 4305,
      "Ġslight": 4306,
      "aughter": 4307,
      "Ġformer": 4308,
      "Ġrelatively": 4309,
      "Ġreson": 4310,
      "Ġfeature": 4311,
      "Ġautom": 4312,
      "Ġsurpr": 4313,
      "ĠMarch": 4314,
      "Ġalgorithm": 4315,
      "rest": 4316,
      "oul": 4317,
      "Ġarriv": 4318,
      "Ġgiving": 4319,
      "iforn": 4320,
      "Ġoperation": 4321,
      "Ġcreative": 4322,
      "Ġbab": 4323,
      "Ġexperiment": 4324,
      "rict": 4325,
      "ĠGreat": 4326,
      "inst": 4327,
      "Ġstrict": 4328,
      "Ġwonder": 4329,
      "Ġspaces": 4330,
      "Ġexplan": 4331,
      "ĠĠĠĠĠĠĠĠĠĠĠĠĠĠĠĠĠĠĠĠĠĠĠĠĠĠĠĠĠĠĠĠ": 4332,
      "Ġreceive": 4333,
      "arian": 4334,
      "Ġbackground": 4335,
      "Ġcore": 4336,
      "Ġcars": 4337,
      "Ġdegree": 4338,
      "Ġfiles": 4339,
      "Ġmel": 4340,
      "Ġteaching": 4341,
      "Ġresulting": 4342,
      "Ġfeelings": 4343,
      "ĠOther": 4344,
      "rupt": 4345,
      "Ġround": 4346,
      "Ġhighlight": 4347,
      "Ġtechnologies": 4348,
      "ffee": 4349,
      "Ġlies": 4350,
      "Ġeasier": 4351,
      "Therefore": 4352,
      "istry": 4353,
      "ĠString": 4354,
      "orthern": 4355,
      "roup": 4356,
      "Ġdivide": 4357,
      "uls": 4358,
      "Ġequipment": 4359,
      "Ġcourt": 4360,
      "hentic": 4361,
      "adr": 4362,
      "Ġclasses": 4363,
      "iding": 4364,
      "Ġleaving": 4365,
      "Ġbran": 4366,
      "ĠInstead": 4367,
      "ogue": 4368,
      "omy": 4369,
      "Ġstars": 4370,
      "rows": 4371,
      "Enter": 4372,
      "Ġiniti": 4373,
      "Â°": 4374,
      "Ġsitu": 4375,
      "ama": 4376,
      "Ġadvance": 4377,
      "Ġsevere": 4378,
      "Ġmemories": 4379,
      "println": 4380,
      "ael": 4381,
      "Ġmist": 4382,
      "Ġmap": 4383,
      "Ġ...": 4384,
      "Ġpal": 4385,
      "ĠCor": 4386,
      "Ġinterests": 4387,
      "rome": 4388,
      "Ġsam": 4389,
      "Ġdevices": 4390,
      "ĠCenter": 4391,
      "ancing": 4392,
      "Ġsubs": 4393,
      "Ġanx": 4394,
      "Ġscores": 4395,
      "Ġocean": 4396,
      "Ġpet": 4397,
      "mission": 4398,
      "ĠBar": 4399,
      "ĠGl": 4400,
      "ĠJune": 4401,
      "pril": 4402,
      "ĠEuropean": 4403,
      "RE": 4404,
      "Ġsave": 4405,
      "Ġcurrently": 4406,
      "ifornia": 4407,
      "down": 4408,
      "Ġfollowed": 4409,
      "Ġemployee": 4410,
      "Int": 4411,
      "dis": 4412,
      "Ġwanted": 4413,
      "ÏĢ": 4414,
      "ml": 4415,
      "Ġ22": 4416,
      "Ġminimum": 4417,
      "boxed": 4418,
      "Ġisol": 4419,
      "Ġmorning": 4420,
      "iant": 4421,
      "Ġremove": 4422,
      "Ġmer": 4423,
      "ĠRuss": 4424,
      "Ġtherefore": 4425,
      "Ġlocated": 4426,
      "ĠInternational": 4427,
      ")$": 4428,
      "chol": 4429,
      "Ġgoes": 4430,
      "Ġreducing": 4431,
      "care": 4432,
      "ĠOur": 4433,
      "Ġhosp": 4434,
      "Ġlaws": 4435,
      "Some": 4436,
      "reedom": 4437,
      "Ġwest": 4438,
      ".\")": 4439,
      "Ġanti": 4440,
      "yd": 4441,
      "Ġolder": 4442,
      "Ġstatistical": 4443,
      "Ġcomponents": 4444,
      "Ġeffort": 4445,
      "Ġgames": 4446,
      "ulated": 4447,
      "ĠInstitute": 4448,
      "Ġscore": 4449,
      "Create": 4450,
      "icip": 4451,
      "otic": 4452,
      "urt": 4453,
      "Ġfoods": 4454,
      "house": 4455,
      "ux": 4456,
      "Ġzero": 4457,
      "bre": 4458,
      "Ġoccurs": 4459,
      "Step": 4460,
      "edia": 4461,
      "Ġonto": 4462,
      "Ġproced": 4463,
      "Ġnucle": 4464,
      "ait": 4465,
      "ingu": 4466,
      "osit": 4467,
      "ĠAug": 4468,
      "Pr": 4469,
      "Total": 4470,
      "aign": 4471,
      "Ġgather": 4472,
      "ĠPark": 4473,
      "issions": 4474,
      "with": 4475,
      "estic": 4476,
      "Ġcompletely": 4477,
      "Sc": 4478,
      "Ġsnail": 4479,
      "ections": 4480,
      "Ġunderlying": 4481,
      "Ġresponsible": 4482,
      "Ġnumerous": 4483,
      "rael": 4484,
      "Ġvary": 4485,
      "ino": 4486,
      "atur": 4487,
      "ont": 4488,
      "Ġ500": 4489,
      "Ġbasis": 4490,
      "Ġ28": 4491,
      "Ġdescription": 4492,
      "])": 4493,
      "agonist": 4494,
      "Ġscenari": 4495,
      "uting": 4496,
      "Ġcold": 4497,
      "Ġspecified": 4498,
      "Ġdiseases": 4499,
      "While": 4500,
      "omial": 4501,
      "Ġfilm": 4502,
      "Ġmission": 4503,
      "Ġnorth": 4504,
      "Dr": 4505,
      "cil": 4506,
      "mt": 4507,
      "orders": 4508,
      "ned": 4509,
      "ooth": 4510,
      "Ġbott": 4511,
      "ester": 4512,
      "Ġadvant": 4513,
      "Ġworked": 4514,
      "pected": 4515,
      "Ġcoming": 4516,
      "Ġattrib": 4517,
      "Ġextract": 4518,
      "Consider": 4519,
      "Ġtail": 4520,
      "Ġexploration": 4521,
      "Ġadvice": 4522,
      "amb": 4523,
      "Ġturned": 4524,
      "osure": 4525,
      "step": 4526,
      "Ġ23": 4527,
      "Ġbenefit": 4528,
      "Ġsem": 4529,
      "Ġrequest": 4530,
      "Ġphrase": 4531,
      "Ġparty": 4532,
      "Ġdanger": 4533,
      "Ġimpl": 4534,
      "Ġannual": 4535,
      "ĠMod": 4536,
      "Ġcoffee": 4537,
      "sin": 4538,
      "onds": 4539,
      "rad": 4540,
      "arter": 4541,
      "plit": 4542,
      "rect": 4543,
      "ĠJack": 4544,
      "Ġple": 4545,
      "Ġgall": 4546,
      "ĠHigh": 4547,
      "Ġmatrix": 4548,
      "Ġsuggestions": 4549,
      "Ġsav": 4550,
      "Ġrevised": 4551,
      "Ġreplace": 4552,
      "65": 4553,
      "rote": 4554,
      "Ġroll": 4555,
      "Ġvision": 4556,
      "Ġpassed": 4557,
      "Ġmaintaining": 4558,
      "Ġclient": 4559,
      "Ġvolume": 4560,
      "Ġallowed": 4561,
      "ĠGerman": 4562,
      "Ġcoast": 4563,
      "Ġliterature": 4564,
      "Ġmole": 4565,
      "Ġrot": 4566,
      "Ġfrequency": 4567,
      "ĠLondon": 4568,
      "oyal": 4569,
      "see": 4570,
      "Ġincome": 4571,
      "ĠCalifornia": 4572,
      "Ġwhis": 4573,
      "index": 4574,
      "ĠIndian": 4575,
      "Ġdoub": 4576,
      "Ġsecrets": 4577,
      "yp": 4578,
      "Ġcorrelation": 4579,
      "rence": 4580,
      "ster": 4581,
      "change": 4582,
      "Ġunf": 4583,
      "Ġpassword": 4584,
      "Ġmember": 4585,
      "Ġexistence": 4586,
      "Ġdiscovery": 4587,
      "Ġmill": 4588,
      "ĠAnt": 4589,
      "Ġalthough": 4590,
      "Ġwrong": 4591,
      "iers": 4592,
      "ocks": 4593,
      "28": 4594,
      "case": 4595,
      "Ġencourage": 4596,
      "ĠEduc": 4597,
      "Ġsignificance": 4598,
      "Ġbrand": 4599,
      "Ġsupply": 4600,
      "Ġcitiz": 4601,
      "Ġsong": 4602,
      "AC": 4603,
      "ĠSw": 4604,
      "Based": 4605,
      "Ġintent": 4606,
      "ĠOct": 4607,
      "Ġscreen": 4608,
      "Ġapplied": 4609,
      "27": 4610,
      "eline": 4611,
      "Ġsites": 4612,
      "Ġoffering": 4613,
      "Ġengage": 4614,
      "valid": 4615,
      "ica": 4616,
      "Ġrapid": 4617,
      "Cont": 4618,
      "IC": 4619,
      "gn": 4620,
      "Ġinstr": 4621,
      "Ġcounter": 4622,
      "unt": 4623,
      "Ġoccup": 4624,
      "Ġhappy": 4625,
      "Ġpicture": 4626,
      "ĠEngland": 4627,
      "Ġcircum": 4628,
      "Ġnearly": 4629,
      "Ġdrawing": 4630,
      "Ġinsert": 4631,
      "Ġerrors": 4632,
      "uration": 4633,
      "Ġacqu": 4634,
      "ĠPresident": 4635,
      "Ġlinked": 4636,
      "Ġadults": 4637,
      "Ġadminist": 4638,
      "ocr": 4639,
      "Ġtransfer": 4640,
      "Ġphenomen": 4641,
      "Ġcontribute": 4642,
      "Ġpages": 4643,
      "Ġformed": 4644,
      "Ġprofound": 4645,
      "Ġdataset": 4646,
      "ĠDavid": 4647,
      "Over": 4648,
      "uman": 4649,
      "ĠDon": 4650,
      "Ġcolon": 4651,
      "Ġreasons": 4652,
      "olving": 4653,
      "Ġarguments": 4654,
      "Ġprinciples": 4655,
      "orial": 4656,
      "Ġtrade": 4657,
      "Ġ45": 4658,
      "Ġprotein": 4659,
      "Ġfully": 4660,
      "times": 4661,
      "part": 4662,
      "Ġequations": 4663,
      "ĠSept": 4664,
      "ĠOutput": 4665,
      "ĠRead": 4666,
      "ĠThom": 4667,
      "Ġ2011": 4668,
      "ĠAfrican": 4669,
      "(-": 4670,
      "Ġmob": 4671,
      "Ġalgebra": 4672,
      "oses": 4673,
      "Ġeconomy": 4674,
      "ĠJuly": 4675,
      "pan": 4676,
      "Ġmanip": 4677,
      "Ġchallenging": 4678,
      "ffect": 4679,
      "ashington": 4680,
      "Ġoffice": 4681,
      "bes": 4682,
      "cho": 4683,
      "Ġacid": 4684,
      "Ġlearned": 4685,
      "ĠMc": 4686,
      "Ġeducational": 4687,
      "Ġflex": 4688,
      "Ġcompar": 4689,
      "Ġpersonality": 4690,
      "Ġrisks": 4691,
      "Ġpriorit": 4692,
      "uk": 4693,
      "ĠRiver": 4694,
      "otes": 4695,
      "Ġshad": 4696,
      "ĠTrans": 4697,
      "aint": 4698,
      "Ġsouth": 4699,
      "Ġhund": 4700,
      "Ġscene": 4701,
      "Ġcomprehensive": 4702,
      "AM": 4703,
      "67": 4704,
      "RL": 4705,
      "http": 4706,
      "Ġtechnique": 4707,
      "being": 4708,
      "IV": 4709,
      "draw": 4710,
      "FOR": 4711,
      "era": 4712,
      "Ġappropriate": 4713,
      "==": 4714,
      "Ġhop": 4715,
      "Ġten": 4716,
      "Ġnotes": 4717,
      "apter": 4718,
      "gets": 4719,
      "Ġteacher": 4720,
      "Ġorganizations": 4721,
      "ĠRoman": 4722,
      "rm": 4723,
      "Ġhair": 4724,
      "Ġcombined": 4725,
      "Ġplaying": 4726,
      "ĠMost": 4727,
      "ĠPol": 4728,
      "Ġauthentic": 4729,
      "ĠHistory": 4730,
      "Ġbegins": 4731,
      "ĠIsrael": 4732,
      "Ġcontroll": 4733,
      "Ġevolution": 4734,
      "Read": 4735,
      "Ġax": 4736,
      "Ġpush": 4737,
      "cdot": 4738,
      "Ġedge": 4739,
      "alpha": 4740,
      "Ġexception": 4741,
      "ags": 4742,
      "board": 4743,
      "Ġbal": 4744,
      "Ġmut": 4745,
      "ĠDay": 4746,
      "anged": 4747,
      "Ġpartners": 4748,
      "Ġdiscussion": 4749,
      "Ġclin": 4750,
      "gs": 4751,
      "arp": 4752,
      "Ġprefer": 4753,
      "ĠCons": 4754,
      "Ġhom": 4755,
      "Ġagricult": 4756,
      "Ġhighest": 4757,
      "Ġbirds": 4758,
      "Ind": 4759,
      "Sh": 4760,
      "hips": 4761,
      "Ġcharacteristics": 4762,
      "ED": 4763,
      "Ġdivided": 4764,
      "BC": 4765,
      "Ġgave": 4766,
      "ĠIS": 4767,
      "Ġpromote": 4768,
      "iveness": 4769,
      "From": 4770,
      "ĠID": 4771,
      "ĠIndia": 4772,
      "ĠUsing": 4773,
      "gypt": 4774,
      "press": 4775,
      "Ġsubt": 4776,
      "Ġunknown": 4777,
      "Ġflowers": 4778,
      "Ġvibr": 4779,
      "Ġmyth": 4780,
      "File": 4781,
      "Ġintric": 4782,
      "Ġwilling": 4783,
      "ervice": 4784,
      "lor": 4785,
      "public": 4786,
      "Ġstation": 4787,
      "ĠApril": 4788,
      "à¸": 4789,
      "Ġign": 4790,
      "ĠGreen": 4791,
      "ĠAlso": 4792,
      "Ġknew": 4793,
      "Ġremov": 4794,
      "ework": 4795,
      "LL": 4796,
      "\\)": 4797,
      "Ġinh": 4798,
      "My": 4799,
      "ĠTime": 4800,
      "Ġprepared": 4801,
      "Ġintelligence": 4802,
      "Tr": 4803,
      "Ġdepending": 4804,
      "Ġpotentially": 4805,
      "Ġlandscape": 4806,
      "Ġphilosoph": 4807,
      "After": 4808,
      "include": 4809,
      "Ġconv": 4810,
      "Ġprotagonist": 4811,
      "Ġthread": 4812,
      "Ġresource": 4813,
      "Ġcausing": 4814,
      "Ġreduced": 4815,
      "acing": 4816,
      "Ġurban": 4817,
      "Ġhouses": 4818,
      "Ġpun": 4819,
      "Ġunivers": 4820,
      "lt": 4821,
      "Ġsharing": 4822,
      "ours": 4823,
      "Ġinvent": 4824,
      "Ġprotection": 4825,
      "Ġdu": 4826,
      "Ġgenetic": 4827,
      "Ġaffected": 4828,
      "Ġrecords": 4829,
      "Ġesc": 4830,
      "Ġfr": 4831,
      "entle": 4832,
      "Ġeth": 4833,
      "35": 4834,
      "MAT": 4835,
      "inc": 4836,
      "ĠMich": 4837,
      "ĠPa": 4838,
      "Ġcreates": 4839,
      "Ġtransportation": 4840,
      "Qu": 4841,
      "body": 4842,
      "host": 4843,
      "lin": 4844,
      "urance": 4845,
      "Ġobjective": 4846,
      "Ġstar": 4847,
      "ĠJames": 4848,
      "Ġrequirements": 4849,
      "oday": 4850,
      "ĠAlthough": 4851,
      "force": 4852,
      "init": 4853,
      "Ġpron": 4854,
      "ped": 4855,
      "Ġinner": 4856,
      "ĠJust": 4857,
      "Ġscale": 4858,
      "Ġsigns": 4859,
      "clusive": 4860,
      "Ġcreation": 4861,
      "Ġfinally": 4862,
      "Ġbodies": 4863,
      "Ġstraight": 4864,
      "II": 4865,
      "SE": 4866,
      "Ġvirtual": 4867,
      "agine": 4868,
      "Ġwrote": 4869,
      "ĠBook": 4870,
      "Ġimmediately": 4871,
      "Ġmentioned": 4872,
      "max": 4873,
      "lands": 4874,
      "Ġbehavi": 4875,
      "lement": 4876,
      "Ġsend": 4877,
      "outhern": 4878,
      "Ġbillion": 4879,
      "Ġdro": 4880,
      "Ġgeometric": 4881,
      "Ġregions": 4882,
      "Ġtrends": 4883,
      "ĠWilliam": 4884,
      "Ġchanging": 4885,
      "elines": 4886,
      "Ġtele": 4887,
      "och": 4888,
      "Ġvirus": 4889,
      "formation": 4890,
      "Ġoptim": 4891,
      "Ġlayer": 4892,
      ")(": 4893,
      "Ġmanner": 4894,
      "abetes": 4895,
      "cember": 4896,
      "Ġalign": 4897,
      "Ġlocations": 4898,
      "Ġwis": 4899,
      "Ġbelief": 4900,
      "ĠAfrica": 4901,
      "ros": 4902,
      "ĠEgypt": 4903,
      "dent": 4904,
      "wide": 4905,
      "ĠBra": 4906,
      "Ġprem": 4907,
      "ĠAugust": 4908,
      "ĠDNA": 4909,
      "rical": 4910,
      "ĠIN": 4911,
      "Ġobserved": 4912,
      "Ġexpertise": 4913,
      "ky": 4914,
      "Ġeast": 4915,
      "Ġlen": 4916,
      "ĠTotal": 4917,
      "airs": 4918,
      "Ġwinter": 4919,
      "ĠHouse": 4920,
      "ouncil": 4921,
      "Ġmale": 4922,
      "Ġske": 4923,
      "Ġhelping": 4924,
      ".'": 4925,
      "nes": 4926,
      "\"}},": 4927,
      "32": 4928,
      "Ġheard": 4929,
      "iance": 4930,
      "Ġtherapy": 4931,
      "ander": 4932,
      "Ġcelebr": 4933,
      "():": 4934,
      "Ġheavy": 4935,
      "ĠAdditionally": 4936,
      "âĪ": 4937,
      "Ġriver": 4938,
      "oken": 4939,
      "Ġletters": 4940,
      "Ġindicate": 4941,
      "Ġpieces": 4942,
      "ĠWashington": 4943,
      "ball": 4944,
      "ĠPress": 4945,
      "Ġfocused": 4946,
      "encing": 4947,
      "Ġquery": 4948,
      "That": 4949,
      "Ġtechnical": 4950,
      "length": 4951,
      "gin": 4952,
      "osen": 4953,
      "ĠBr": 4954,
      "()`": 4955,
      "tes": 4956,
      "essage": 4957,
      "aze": 4958,
      "coh": 4959,
      "Ġtension": 4960,
      "ulner": 4961,
      "ifies": 4962,
      "ovember": 4963,
      "product": 4964,
      "Ġnull": 4965,
      "Ġfinds": 4966,
      "Ġwalls": 4967,
      "ĠMark": 4968,
      "Ġtow": 4969,
      "They": 4970,
      "properties": 4971,
      "Ġopin": 4972,
      "Ġstorage": 4973,
      "Ġfascinating": 4974,
      "men": 4975,
      "urg": 4976,
      "ĠCong": 4977,
      "Ġinvestment": 4978,
      "connect": 4979,
      "ĠChar": 4980,
      "Ġ70": 4981,
      "Ġplayer": 4982,
      "Ġsuitable": 4983,
      "Ġcontinues": 4984,
      "Ġprecise": 4985,
      "Ġdied": 4986,
      "Ġwants": 4987,
      "Ġdance": 4988,
      "Ġrelease": 4989,
      "antic": 4990,
      "ĠIts": 4991,
      "ructure": 4992,
      "ĠGovern": 4993,
      "Ġlaunch": 4994,
      "Ġamb": 4995,
      "ford": 4996,
      "Ġqual": 4997,
      "ube": 4998,
      "Ġcommer": 4999,
      "Ġstandards": 5000,
      "Ġdetermined": 5001,
      "Ġangle": 5002,
      "Ġstruggle": 5003,
      "Ġdriving": 5004,
      "Ġfruit": 5005,
      "ĠInter": 5006,
      "ĠValue": 5007,
      "29": 5008,
      "items": 5009,
      "Ġdiverse": 5010,
      "Ġcampaign": 5011,
      "Ġbuy": 5012,
      "mitted": 5013,
      "Ġsin": 5014,
      "iling": 5015,
      "ĠJapanese": 5016,
      "\"},": 5017,
      "Ġ,": 5018,
      "ĠJes": 5019,
      "Ġsolid": 5020,
      "Ġmonit": 5021,
      "No": 5022,
      "roy": 5023,
      "Ġalt": 5024,
      "Ġplaced": 5025,
      "Ġacademic": 5026,
      "pers": 5027,
      "Ġ2008": 5028,
      "ĠVir": 5029,
      "Ġcreatures": 5030,
      "tery": 5031,
      "udd": 5032,
      "Ġconstit": 5033,
      "Ġmit": 5034,
      "olved": 5035,
      "ria": 5036,
      "ansion": 5037,
      "bb": 5038,
      "FORMAT": 5039,
      "ĠTest": 5040,
      "Ġphone": 5041,
      "ĠSeptember": 5042,
      "main": 5043,
      "Ġderiv": 5044,
      "balance": 5045,
      "can": 5046,
      "ĠNumber": 5047,
      "Ġ+=": 5048,
      "Ġproduces": 5049,
      "Ġphrases": 5050,
      "LAIN": 5051,
      "estion": 5052,
      "Ġspeech": 5053,
      "othing": 5054,
      "Ġefficiency": 5055,
      "Ġcorresponding": 5056,
      "igen": 5057,
      "ĠKe": 5058,
      "Ġ2013": 5059,
      "Ġrepresentation": 5060,
      "Ġelim": 5061,
      "Ġimproved": 5062,
      "Ġseeking": 5063,
      "Ġdynamic": 5064,
      "hors": 5065,
      "Ġwall": 5066,
      "Ġmoon": 5067,
      "âĢ¢": 5068,
      "Ġ($": 5069,
      "ĠMars": 5070,
      "Ġmystery": 5071,
      "ĠJanuary": 5072,
      "Ġnotice": 5073,
      "Ġgets": 5074,
      "Ġvector": 5075,
      "asure": 5076,
      "Ġcosm": 5077,
      "ĠOver": 5078,
      "Ġpresented": 5079,
      "test": 5080,
      "Ġrect": 5081,
      "ognitive": 5082,
      "Ġutil": 5083,
      "All": 5084,
      "Ġ300": 5085,
      "ĠAng": 5086,
      "Ġstrings": 5087,
      "ync": 5088,
      "Ġexperienced": 5089,
      "py": 5090,
      "Ġfreedom": 5091,
      "Ġcontinuous": 5092,
      "Ġvillage": 5093,
      "Ġpercentage": 5094,
      "Ġeventually": 5095,
      "Ġdogs": 5096,
      "Ġsmooth": 5097,
      "numbers": 5098,
      "Ġcards": 5099,
      "Ġcopy": 5100,
      "Ġfederal": 5101,
      "ĠData": 5102,
      "Ġsaying": 5103,
      "going": 5104,
      "Ġinnovative": 5105,
      "Ġshop": 5106,
      "Ġshift": 5107,
      "ris": 5108,
      "etch": 5109,
      "Ġleads": 5110,
      "LAINFORMAT": 5111,
      "Ġchart": 5112,
      "Ġprices": 5113,
      "reland": 5114,
      "Ġdecided": 5115,
      "egin": 5116,
      "ographic": 5117,
      "Given": 5118,
      "Ġ2007": 5119,
      "})": 5120,
      "Ġreference": 5121,
      "Ġidentified": 5122,
      "Ġoptional": 5123,
      "Ġcop": 5124,
      "ĠSoci": 5125,
      "Ġlegal": 5126,
      "TE": 5127,
      "ĠAccording": 5128,
      "ĠBo": 5129,
      "ints": 5130,
      "Ġspot": 5131,
      "Ġdefine": 5132,
      "Ġprocessing": 5133,
      "Ġconsumption": 5134,
      "Ġabsolute": 5135,
      "ĠTechn": 5136,
      "Ġrestaur": 5137,
      "Ġbrief": 5138,
      "Ġreb": 5139,
      "aws": 5140,
      "Ġcommonly": 5141,
      "liers": 5142,
      "Ġmath": 5143,
      "Ġdram": 5144,
      "Ġsac": 5145,
      "etime": 5146,
      "Ġinteractions": 5147,
      "Ġloop": 5148,
      "Ġslightly": 5149,
      "Val": 5150,
      "Ġtiss": 5151,
      "Ġstorm": 5152,
      "Ġ2009": 5153,
      "ĠTrue": 5154,
      "Ġclearly": 5155,
      "dule": 5156,
      "```<|": 5157,
      "Ġeight": 5158,
      "Ġeating": 5159,
      "Ġbright": 5160,
      "porary": 5161,
      "Ph": 5162,
      "Ġpu": 5163,
      "iced": 5164,
      "anted": 5165,
      "Ġexperim": 5166,
      "Ġlisten": 5167,
      "uing": 5168,
      "Ġ35": 5169,
      "Ġbelong": 5170,
      "Ġdegrees": 5171,
      "Data": 5172,
      "Ġinfection": 5173,
      "Ġvisitors": 5174,
      "Ġbelieved": 5175,
      "Ġrhyth": 5176,
      "Ġlatest": 5177,
      "enty": 5178,
      "Ġtwice": 5179,
      "Ġlogical": 5180,
      "Ġ26": 5181,
      "ias": 5182,
      "Ġdespite": 5183,
      "Ġensuring": 5184,
      "Ġmere": 5185,
      "Ġdri": 5186,
      "Ġpossess": 5187,
      "Ġseemed": 5188,
      "ĠChild": 5189,
      "ĠChristian": 5190,
      "ĠCanada": 5191,
      "ĠCounty": 5192,
      "}\")": 5193,
      "erious": 5194,
      "Ġbed": 5195,
      "Ġcarefully": 5196,
      "PA": 5197,
      "urrent": 5198,
      "ellect": 5199,
      "Ġimmers": 5200,
      "ĠAssoci": 5201,
      "orge": 5202,
      "Ġparalle": 5203,
      "Ġmoved": 5204,
      "fit": 5205,
      "ION": 5206,
      "ĠEven": 5207,
      "ipped": 5208,
      "Ġpen": 5209,
      "urthermore": 5210,
      "rics": 5211,
      "Ġvulner": 5212,
      "Ġproport": 5213,
      "Ġpolice": 5214,
      "');": 5215,
      "world": 5216,
      "ĠSan": 5217,
      "rogen": 5218,
      "Ġtrig": 5219,
      "Ġrent": 5220,
      "ords": 5221,
      "coming": 5222,
      "Ġchoices": 5223,
      "Ġlik": 5224,
      "Ġgentle": 5225,
      "Ġ27": 5226,
      "Ġfactory": 5227,
      "Ġreligious": 5228,
      "friend": 5229,
      "vision": 5230,
      "ournal": 5231,
      "ologist": 5232,
      "Ġmissing": 5233,
      "iosity": 5234,
      "sec": 5235,
      "Ġbacteria": 5236,
      "Ġstrictly": 5237,
      "Ġthemes": 5238,
      "Ġreturned": 5239,
      "Ġprofit": 5240,
      "Ġpaint": 5241,
      "ĠCommun": 5242,
      "Ġsweet": 5243,
      "ĠThus": 5244,
      "Ġstarts": 5245,
      "Ġuncertain": 5246,
      "Ġfant": 5247,
      "ĠDecember": 5248,
      "Ġ120": 5249,
      "required": 5250,
      "Ġchann": 5251,
      "ensions": 5252,
      "ĠArch": 5253,
      "Ġcir": 5254,
      "Ġsurrounding": 5255,
      "Ġarrange": 5256,
      "ĠFeb": 5257,
      "Ġmaster": 5258,
      "ĠSam": 5259,
      "ĠPat": 5260,
      "Ġ2000": 5261,
      "Se": 5262,
      "Ġswitch": 5263,
      "inese": 5264,
      "26": 5265,
      "root": 5266,
      "Ġbecoming": 5267,
      "related": 5268,
      "Ġdialogue": 5269,
      "49": 5270,
      "Ġinformed": 5271,
      "ommod": 5272,
      "king": 5273,
      "nomial": 5274,
      "Ġowners": 5275,
      "Ġtur": 5276,
      "Ġsalary": 5277,
      "Ġcycle": 5278,
      "];": 5279,
      "ressed": 5280,
      "Ġrelative": 5281,
      "cohol": 5282,
      "Ġunex": 5283,
      "Ġplane": 5284,
      "ĠSub": 5285,
      "ells": 5286,
      "Ġtraffic": 5287,
      "ĠOctober": 5288,
      "Ġanxiety": 5289,
      "Ġcovered": 5290,
      "alt": 5291,
      "Ġtoward": 5292,
      "Ġtrib": 5293,
      "\":[\"": 5294,
      "\"]}}": 5295,
      "Ġconsistent": 5296,
      "Set": 5297,
      "Ġexposure": 5298,
      "['": 5299,
      "Ġkm": 5300,
      "oo": 5301,
      "Ġanyone": 5302,
      "48": 5303,
      "Ġexists": 5304,
      "Ġconfidence": 5305,
      "ĠCheck": 5306,
      "Ġwealth": 5307,
      "ĠLear": 5308,
      "Ġsituations": 5309,
      "ĠBlack": 5310,
      "Ġspend": 5311,
      "hedule": 5312,
      "Ġdrawn": 5313,
      "Ġinternal": 5314,
      "Ġwidely": 5315,
      "stack": 5316,
      "ishing": 5317,
      "Ġfoundation": 5318,
      "works": 5319,
      "\\]": 5320,
      "oding": 5321,
      "Ġtopics": 5322,
      "ĠDespite": 5323,
      "78": 5324,
      "Ġconservation": 5325,
      "Ġcollaboration": 5326,
      "Ġtrou": 5327,
      "ĠDuring": 5328,
      "Ġdesired": 5329,
      "ĠProgram": 5330,
      "Ġpractical": 5331,
      "Ġindicates": 5332,
      "Ġfemale": 5333,
      "Ġsynt": 5334,
      "$$": 5335,
      "Ġsugar": 5336,
      "Ġsusp": 5337,
      "iology": 5338,
      "Ġdelic": 5339,
      "stitution": 5340,
      "top": 5341,
      "Ġpreserv": 5342,
      "Ġparticipants": 5343,
      "hus": 5344,
      "Ġspark": 5345,
      "ĠEducation": 5346,
      "Ġlived": 5347,
      "Ġexternal": 5348,
      "ĠPerhaps": 5349,
      "Ġboundaries": 5350,
      "Ġfaith": 5351,
      "ĠSee": 5352,
      "ĠEmily": 5353,
      "Ġtal": 5354,
      "cknow": 5355,
      "Ġshowed": 5356,
      "ĠOff": 5357,
      "Ġestimate": 5358,
      "Ġsurvey": 5359,
      "Ġengineering": 5360,
      "Ġfing": 5361,
      "Ġrenew": 5362,
      "olds": 5363,
      "Ġprepar": 5364,
      "Ġgeneration": 5365,
      "UT": 5366,
      "nesses": 5367,
      "Ġorigin": 5368,
      "Ġlacks": 5369,
      "ygen": 5370,
      "Ġblog": 5371,
      "Ġresponsibility": 5372,
      "Ġpolynomial": 5373,
      "ĠIreland": 5374,
      "ĠNovember": 5375,
      "Ġexcess": 5376,
      "Ġrelax": 5377,
      "tical": 5378,
      "Ġsand": 5379,
      "eger": 5380,
      "Ġincred": 5381,
      "Ġpolicies": 5382,
      "ĠAustralia": 5383,
      "ĠWeb": 5384,
      "ĠGoogle": 5385,
      "Ġcitizens": 5386,
      "Ġbinary": 5387,
      "standing": 5388,
      "bles": 5389,
      "do": 5390,
      "Ġarm": 5391,
      "Ġreleased": 5392,
      "Ġgod": 5393,
      "ĠAmericans": 5394,
      "Gen": 5395,
      "Ġbattle": 5396,
      "Ġguidance": 5397,
      "Ġevaluate": 5398,
      ".\",\"": 5399,
      "sub": 5400,
      "ums": 5401,
      "ĠWater": 5402,
      "ĠChurch": 5403,
      "Ġrevolution": 5404,
      "Ġsorted": 5405,
      "Ġsecure": 5406,
      "ĠJesus": 5407,
      "38": 5408,
      "Ġearn": 5409,
      "omb": 5410,
      "Ġteach": 5411,
      "ificial": 5412,
      "Ġprogramming": 5413,
      "Ġdefinition": 5414,
      "SON": 5415,
      "ĠSocial": 5416,
      "tion": 5417,
      "Ġtransl": 5418,
      "Ġjournal": 5419,
      "Ġconsole": 5420,
      "ĠMake": 5421,
      "Ġshowing": 5422,
      "Ġtall": 5423,
      "Ġlooked": 5424,
      "Ġexpressed": 5425,
      "Ġmajority": 5426,
      "Ġrestr": 5427,
      "Ġclosely": 5428,
      "ĠFrance": 5429,
      "cosystem": 5430,
      "Ġplayed": 5431,
      "Ġbuildings": 5432,
      "US": 5433,
      "asion": 5434,
      "eterm": 5435,
      "Ġkid": 5436,
      "lick": 5437,
      "Time": 5438,
      "append": 5439,
      "Ġbrother": 5440,
      "Ġradius": 5441,
      "Ġfeels": 5442,
      "level": 5443,
      "Ġapart": 5444,
      "ĠPeople": 5445,
      "ĠBecause": 5446,
      "!\"": 5447,
      "Ġtips": 5448,
      "Ġmilk": 5449,
      "ltimately": 5450,
      "west": 5451,
      ".\"}}": 5452,
      "Ġcontem": 5453,
      "Ġpairs": 5454,
      "Ġextremely": 5455,
      "real": 5456,
      "Ġoutcome": 5457,
      "nection": 5458,
      "Ġdivis": 5459,
      "semb": 5460,
      "Ġsports": 5461,
      "Ġopening": 5462,
      "da": 5463,
      "Ġfine": 5464,
      "ĠDi": 5465,
      "Ġinsight": 5466,
      "Ġnutrit": 5467,
      "05": 5468,
      "Ġremoved": 5469,
      "Ġconvert": 5470,
      "ĠMat": 5471,
      "queue": 5472,
      "Ġintellect": 5473,
      "ĠAdd": 5474,
      "AD": 5475,
      "Note": 5476,
      "ĠUnder": 5477,
      "Ġinches": 5478,
      "cious": 5479,
      "find": 5480,
      "oted": 5481,
      "ocation": 5482,
      "Ġassist": 5483,
      "Ġvictim": 5484,
      "Number": 5485,
      "Ġvia": 5486,
      "Ġgrav": 5487,
      "Ġintroduced": 5488,
      "Ġupdate": 5489,
      "Ġfavorite": 5490,
      "ruary": 5491,
      "Ġtriv": 5492,
      "atically": 5493,
      "Ġwife": 5494,
      "Ġ150": 5495,
      "Ġattend": 5496,
      "Ġrepresented": 5497,
      "Ġhappen": 5498,
      "Ġtemperatures": 5499,
      "uracy": 5500,
      "oose": 5501,
      "Ġ_": 5502,
      "Ġreaction": 5503,
      "Ġreached": 5504,
      "pping": 5505,
      "Ġpregn": 5506,
      "Ġvert": 5507,
      "Ġcompare": 5508,
      "Ġspecifically": 5509,
      "Ġholds": 5510,
      "pen": 5511,
      "Ġspring": 5512,
      "Ġmessages": 5513,
      "Ġ~": 5514,
      "Ġcro": 5515,
      "ĠAut": 5516,
      "ĠCour": 5517,
      "Ġfloor": 5518,
      "Ġastron": 5519,
      "Ġtheorem": 5520,
      "ean": 5521,
      "ida": 5522,
      "Ġhearing": 5523,
      "Ġminor": 5524,
      "db": 5525,
      "hand": 5526,
      "Ġprofession": 5527,
      "Ġwaters": 5528,
      "Ġdesire": 5529,
      "ĠChinese": 5530,
      "apping": 5531,
      "Ġingred": 5532,
      "ĠĠĠĠĠĠ": 5533,
      "Ġpursu": 5534,
      "Ġabilities": 5535,
      "Ġhelped": 5536,
      "Ġsymmet": 5537,
      "Ġpronoun": 5538,
      "ressive": 5539,
      "ĠPal": 5540,
      "Ġchecks": 5541,
      "itter": 5542,
      "icks": 5543,
      "Ġcontra": 5544,
      "Ġaccessible": 5545,
      "Ġmultiply": 5546,
      "Ġcommercial": 5547,
      "Ġaccommod": 5548,
      "Ġpossibility": 5549,
      "Ġinteractive": 5550,
      "Ġgeometry": 5551,
      "Ġdates": 5552,
      "ĠMiss": 5553,
      "Ġregression": 5554,
      ".\"}},\"": 5555,
      "Ġmotion": 5556,
      "za": 5557,
      "agram": 5558,
      "55": 5559,
      "isc": 5560,
      "Ġforced": 5561,
      "ague": 5562,
      "Ġserved": 5563,
      "Ġfle": 5564,
      "\";": 5565,
      "34": 5566,
      "Ġhelpful": 5567,
      "Ġmyself": 5568,
      "Ġassign": 5569,
      "iate": 5570,
      "Ġwidth": 5571,
      "ico": 5572,
      "rian": 5573,
      "ĠParis": 5574,
      "66": 5575,
      "ĠAh": 5576,
      "Ġabsor": 5577,
      "ĠSociety": 5578,
      "Ġsurg": 5579,
      "Ġartists": 5580,
      "Ġintegral": 5581,
      "fil": 5582,
      "gl": 5583,
      "Ġrelat": 5584,
      "iday": 5585,
      "ptic": 5586,
      "Ġqueue": 5587,
      "37": 5588,
      "ixt": 5589,
      "Ġacknow": 5590,
      "Ġhypothes": 5591,
      "Ġschol": 5592,
      "Ġvent": 5593,
      "result": 5594,
      "Ġinfect": 5595,
      "Ġviews": 5596,
      "Ġproposed": 5597,
      "orrow": 5598,
      "Ġdrugs": 5599,
      "Ġlooks": 5600,
      "RI": 5601,
      "Ġrefuse": 5602,
      "Use": 5603,
      "Ġpros": 5604,
      "Ġexcell": 5605,
      "Ġmysterious": 5606,
      "Ġwidgets": 5607,
      "Remember": 5608,
      "Ġframework": 5609,
      "lines": 5610,
      "inf": 5611,
      "reement": 5612,
      "Ġglow": 5613,
      "Ġhandling": 5614,
      "Ġpowers": 5615,
      "Ġeggs": 5616,
      "inates": 5617,
      "road": 5618,
      "using": 5619,
      "crete": 5620,
      "Ġreports": 5621,
      "Ġhospital": 5622,
      "Ġgal": 5623,
      "Ġjoint": 5624,
      "iration": 5625,
      "Ġsuppl": 5626,
      "Ġcapture": 5627,
      "eath": 5628,
      "icit": 5629,
      "Ġjava": 5630,
      "ĠVol": 5631,
      "Ġcenturies": 5632,
      "asy": 5633,
      "Ġhomes": 5634,
      "Ġpasseng": 5635,
      "Exception": 5636,
      "Ġalle": 5637,
      "isher": 5638,
      "Ġfost": 5639,
      "Ġkit": 5640,
      "Ġdeviation": 5641,
      "Ġinequ": 5642,
      "ĠOb": 5643,
      "Ġdiabetes": 5644,
      "Ġupdated": 5645,
      "Ġ[]": 5646,
      "Ġgreatest": 5647,
      "Ġideal": 5648,
      "Ġcalculated": 5649,
      "HE": 5650,
      "Ġraised": 5651,
      "ipping": 5652,
      "},\"": 5653,
      "ormal": 5654,
      "Ġsuggested": 5655,
      "words": 5656,
      "Ġfamiliar": 5657,
      "pat": 5658,
      "roph": 5659,
      "osite": 5660,
      "Ġkil": 5661,
      "Ġbeneath": 5662,
      "Ġbusinesses": 5663,
      "Ġsufficient": 5664,
      "Ġupper": 5665,
      "Ġpret": 5666,
      "Ġrealm": 5667,
      "Ġexcited": 5668,
      "Ġclaims": 5669,
      "Ġecosystem": 5670,
      "Ġstret": 5671,
      "Ġadhere": 5672,
      "Ġsuccessfully": 5673,
      "Ġestimated": 5674,
      "ĠSun": 5675,
      "oking": 5676,
      "Ġmedian": 5677,
      "Ġdepression": 5678,
      "wood": 5679,
      "esc": 5680,
      "ĠMary": 5681,
      "xtract": 5682,
      "Ġdreams": 5683,
      "uilding": 5684,
      "01": 5685,
      "Please": 5686,
      "cout": 5687,
      "utive": 5688,
      "Ġuns": 5689,
      "ĠColle": 5690,
      "Ġcommunicate": 5691,
      "Ġintegr": 5692,
      "Ġmuse": 5693,
      "Ġbottom": 5694,
      "ĠUN": 5695,
      "Ġhit": 5696,
      "Ġcompleted": 5697,
      "Additionally": 5698,
      "net": 5699,
      "__(": 5700,
      "Ġ\"\"\"": 5701,
      "Ġmanif": 5702,
      "js": 5703,
      "ĠRec": 5704,
      "tenance": 5705,
      "Ġguess": 5706,
      "Ġves": 5707,
      "Ġchosen": 5708,
      "Ġpred": 5709,
      "Ġleader": 5710,
      "rieved": 5711,
      "arah": 5712,
      "Ġpeak": 5713,
      "mark": 5714,
      "ifact": 5715,
      "cel": 5716,
      "vis": 5717,
      "tee": 5718,
      "ossible": 5719,
      "ingly": 5720,
      "Ġdie": 5721,
      "Ġnil": 5722,
      "ĠMart": 5723,
      "Ġoffic": 5724,
      "Ġlogic": 5725,
      "making": 5726,
      "well": 5727,
      "Ġschedule": 5728,
      "Ġthousands": 5729,
      "Ġplays": 5730,
      "ĠJournal": 5731,
      "Ġemissions": 5732,
      "Ġimprovement": 5733,
      "Ġultimately": 5734,
      "Ġadventure": 5735,
      "Ġbaby": 5736,
      "active": 5737,
      "ructions": 5738,
      "39": 5739,
      "field": 5740,
      "unning": 5741,
      "Ġintended": 5742,
      "Ġinfinite": 5743,
      "ora": 5744,
      "url": 5745,
      "Ġincorporating": 5746,
      "Ġpul": 5747,
      "conds": 5748,
      "Ġcrew": 5749,
      "ĠPhil": 5750,
      "ses": 5751,
      "Ġnuanced": 5752,
      "Ġresil": 5753,
      "apers": 5754,
      "Ġpopulations": 5755,
      "ashion": 5756,
      "Ġprompt": 5757,
      "Ġdestroy": 5758,
      "ĠHen": 5759,
      "ĠQue": 5760,
      "Ġelectricity": 5761,
      "Ġtox": 5762,
      "Ġflat": 5763,
      "Ġpassage": 5764,
      "Ġforeign": 5765,
      "ien": 5766,
      "ĠĠĊ": 5767,
      "Ġpartner": 5768,
      "efore": 5769,
      "Ġsmart": 5770,
      "writing": 5771,
      "Ġcompelling": 5772,
      "Ġadds": 5773,
      "Ġstim": 5774,
      "Ġshif": 5775,
      "bert": 5776,
      "Ġregarding": 5777,
      "Ġinterview": 5778,
      "rastructure": 5779,
      "nam": 5780,
      "inator": 5781,
      "Ġwel": 5782,
      "Ġconference": 5783,
      "Ġcontract": 5784,
      "ĠGeneral": 5785,
      "ĠSte": 5786,
      "ĠMuse": 5787,
      "Ġphase": 5788,
      "ĠRober": 5789,
      "Ġintricate": 5790,
      "Ġdedicated": 5791,
      "Ġmodule": 5792,
      "Ġarchitecture": 5793,
      "Ġcm": 5794,
      "Ġequival": 5795,
      "Ġpainting": 5796,
      "ĠNet": 5797,
      "Ġprison": 5798,
      "Ġdivers": 5799,
      "current": 5800,
      "Ġthick": 5801,
      "ĠGermany": 5802,
      "Ġexplanation": 5803,
      "ternatively": 5804,
      "Ġkeeping": 5805,
      "Ġment": 5806,
      "Ġdisci": 5807,
      "fig": 5808,
      "Ġsq": 5809,
      "ĠCO": 5810,
      "Ġ36": 5811,
      "Ġplayers": 5812,
      "Ġmedicine": 5813,
      "ĠSch": 5814,
      "Ġiter": 5815,
      "Ġclosed": 5816,
      "Ġgene": 5817,
      "Ġfrequently": 5818,
      "Ġmal": 5819,
      "Ġnor": 5820,
      "Ġcuriosity": 5821,
      "ĠGreek": 5822,
      "ĠSol": 5823,
      "Ġrecurs": 5824,
      "Ġperiods": 5825,
      "Ġmoments": 5826,
      "Ġbreast": 5827,
      "Ġcomponent": 5828,
      "Or": 5829,
      "rab": 5830,
      "Ġmo": 5831,
      "Ġhuge": 5832,
      "search": 5833,
      "Ġenthus": 5834,
      "Ġdepends": 5835,
      "Ġjustice": 5836,
      "Ġdecades": 5837,
      "Ġnarrow": 5838,
      "Ġstock": 5839,
      "ĠOnce": 5840,
      "ĠEvery": 5841,
      "ĠLa": 5842,
      "ĠList": 5843,
      "Ġlists": 5844,
      "Ġtap": 5845,
      "Using": 5846,
      "ĠLaw": 5847,
      "Ġrefers": 5848,
      "ĠFebruary": 5849,
      "Ġgenerated": 5850,
      "Ġnearby": 5851,
      "amm": 5852,
      "Ġjoy": 5853,
      "Ġpreviously": 5854,
      "Ġadvantage": 5855,
      "unting": 5856,
      "Ġfailure": 5857,
      "Ġpossibilities": 5858,
      "Ġtick": 5859,
      "ald": 5860,
      "alian": 5861,
      "Ġintrig": 5862,
      "TM": 5863,
      "Ġsubtle": 5864,
      "Ġarticles": 5865,
      "Ġappreciate": 5866,
      "what": 5867,
      "anish": 5868,
      "Ġdin": 5869,
      "Ġoccurred": 5870,
      "PS": 5871,
      "long": 5872,
      "ĠGr": 5873,
      "rem": 5874,
      "ĠSet": 5875,
      "Ġ2006": 5876,
      "Ġintentions": 5877,
      "Ġinsect": 5878,
      "Ġaccuracy": 5879,
      "John": 5880,
      "Ġcognitive": 5881,
      "Ġfill": 5882,
      "eless": 5883,
      "Ġcharge": 5884,
      "imens": 5885,
      "Ġintroduction": 5886,
      "uous": 5887,
      "ups": 5888,
      "Ġfixed": 5889,
      "ĠUp": 5890,
      "Ġhappened": 5891,
      "inant": 5892,
      "Ġdoll": 5893,
      "Ġ29": 5894,
      "ĠJewish": 5895,
      "Ġoxygen": 5896,
      "ĠÃĹ": 5897,
      "Ġfab": 5898,
      "Ġstre": 5899,
      "Ġfilter": 5900,
      "Ġera": 5901,
      "lock": 5902,
      "Ġsyn": 5903,
      "Ġhero": 5904,
      "orted": 5905,
      "Ġ75": 5906,
      "Ġstudying": 5907,
      "Ġfaster": 5908,
      "Ġseven": 5909,
      "Ġkill": 5910,
      "ĠGal": 5911,
      "Ġ||": 5912,
      "Ġwindow": 5913,
      "']": 5914,
      "alysis": 5915,
      "ago": 5916,
      "Ġengagement": 5917,
      "which": 5918,
      "section": 5919,
      "Ġkilled": 5920,
      "Ġnuclear": 5921,
      "Ġpresident": 5922,
      "band": 5923,
      "Ġgrammar": 5924,
      "Do": 5925,
      "Sub": 5926,
      "ĠMor": 5927,
      "ĠWell": 5928,
      "Ġcomposing": 5929,
      "Ġodd": 5930,
      "Ġchurch": 5931,
      "ĠRem": 5932,
      "ĠMedic": 5933,
      "Ġwriter": 5934,
      "password": 5935,
      "Ġinterval": 5936,
      "Ġ2005": 5937,
      "Ġaccompl": 5938,
      "Ġic": 5939,
      "Ġwisdom": 5940,
      "eta": 5941,
      "Ġmeant": 5942,
      "Ġstudied": 5943,
      "flow": 5944,
      "Ġcup": 5945,
      "oper": 5946,
      "Ġstanding": 5947,
      "Ġiron": 5948,
      "Ġquiet": 5949,
      "Ġartist": 5950,
      "akers": 5951,
      "appe": 5952,
      "Why": 5953,
      "Ġvibrant": 5954,
      "Ġsnow": 5955,
      "Ġcarried": 5956,
      "Ġworksh": 5957,
      "Ġreferred": 5958,
      "under": 5959,
      "Ġresistance": 5960,
      "plication": 5961,
      "She": 5962,
      "Ġincreasingly": 5963,
      "31": 5964,
      "note": 5965,
      "Develop": 5966,
      "ĠPlan": 5967,
      "Ġclassroom": 5968,
      "Ġdepartment": 5969,
      "return": 5970,
      "Ġcong": 5971,
      "Ġherself": 5972,
      "ourage": 5973,
      "pet": 5974,
      "ithms": 5975,
      "ĠFinally": 5976,
      "Ġotherwise": 5977,
      "Ġhappens": 5978,
      "Ġprepare": 5979,
      "ĠIrish": 5980,
      "oom": 5981,
      "char": 5982,
      "Ġquadr": 5983,
      "Ġrestrict": 5984,
      "ĠRel": 5985,
      "Ġvessel": 5986,
      "Ġpaid": 5987,
      "Cal": 5988,
      "Col": 5989,
      "Ġpp": 5990,
      "Ġyellow": 5991,
      "ĠLou": 5992,
      "Ġstatements": 5993,
      "Ġgirls": 5994,
      "Our": 5995,
      "Ġcreativity": 5996,
      "Ġrough": 5997,
      "Ġinnovation": 5998,
      "Ġneighbor": 5999,
      "ĠĠĠĠĠĠĠĠĠĠĠĠĠĠĠĠĠĠĠĠĠĠĠĠ": 6000,
      "199": 6001,
      "Ġaid": 6002,
      "Ġaccounts": 6003,
      "ein": 6004,
      "urd": 6005,
      "Ġchain": 6006,
      "Ġnecessarily": 6007,
      "Ġresidents": 6008,
      "Ġfert": 6009,
      "Ġwhom": 6010,
      "Ġconscious": 6011,
      "Ġremained": 6012,
      "Ġcloser": 6013,
      "Ġdistrict": 6014,
      "Ġclust": 6015,
      "Ġassume": 6016,
      "Ġtrivia": 6017,
      "ĠPort": 6018,
      "iled": 6019,
      "Ġreserv": 6020,
      "Ġ@": 6021,
      "Ġfib": 6022,
      "unte": 6023,
      "Ġ1000": 6024,
      "ĠMain": 6025,
      "Ġoverw": 6026,
      "ocket": 6027,
      "Ġrepresenting": 6028,
      "Ġmotivations": 6029,
      "ĠAssociation": 6030,
      "iability": 6031,
      "kin": 6032,
      "Ġboy": 6033,
      "Ġalcohol": 6034,
      "Ġexchange": 6035,
      "Ġmeaningful": 6036,
      "Ġcere": 6037,
      "ĠUK": 6038,
      "Ġcouple": 6039,
      "ĠMuseum": 6040,
      "ails": 6041,
      "Ġserves": 6042,
      "Ġnutri": 6043,
      "unk": 6044,
      "Ġelif": 6045,
      "Ġachieved": 6046,
      "cular": 6047,
      "44": 6048,
      "Ġfest": 6049,
      "ĠGet": 6050,
      "Ġdivision": 6051,
      "Ġmoral": 6052,
      "Ġcircumst": 6053,
      "example": 6054,
      "Ġprioritize": 6055,
      "ĠCongress": 6056,
      "Ġmode": 6057,
      "stract": 6058,
      "Ġexperts": 6059,
      "Ġcredit": 6060,
      "Provide": 6061,
      "ĠAir": 6062,
      "Ġclassic": 6063,
      "Not": 6064,
      "aper": 6065,
      "Ġnest": 6066,
      "Ġproof": 6067,
      "Ġmanager": 6068,
      "Ġinfrastructure": 6069,
      "Ġfacilit": 6070,
      "Ġquantum": 6071,
      "ĠPost": 6072,
      "ooking": 6073,
      "ologists": 6074,
      "ĠEnvironment": 6075,
      "sm": 6076,
      "riage": 6077,
      "ĠProf": 6078,
      "Ġreduction": 6079,
      "Ġperspectives": 6080,
      "Ġpurchase": 6081,
      "Ġcra": 6082,
      "Ġcrow": 6083,
      "Ġartifact": 6084,
      "cycl": 6085,
      "ĠCalculate": 6086,
      "Ġbill": 6087,
      "Ġoverl": 6088,
      "Ġperformed": 6089,
      "Ġphysic": 6090,
      "Ġsuccinct": 6091,
      "poses": 6092,
      "ĠWestern": 6093,
      "lights": 6094,
      "stream": 6095,
      "ulum": 6096,
      "ĠMount": 6097,
      "Ġconsult": 6098,
      "Ġexpectations": 6099,
      "ĠGiven": 6100,
      "Ġconstra": 6101,
      "ĠInternet": 6102,
      "Ġflight": 6103,
      "Ġfunding": 6104,
      "Ġjobs": 6105,
      "69": 6106,
      "Ġahead": 6107,
      "Ġmort": 6108,
      "Ġamounts": 6109,
      "Ġrecognize": 6110,
      "ĠRepublic": 6111,
      "Ġvitamin": 6112,
      "Ġcollege": 6113,
      "var": 6114,
      "your": 6115,
      "ĠBen": 6116,
      "Ġconducted": 6117,
      "ĠTown": 6118,
      "Ġtreated": 6119,
      "aker": 6120,
      "Per": 6121,
      "Ġauthors": 6122,
      "Ġcultures": 6123,
      "ĠWhite": 6124,
      "Ġsight": 6125,
      "Ġorg": 6126,
      "rier": 6127,
      "ĠLord": 6128,
      "Ġorganic": 6129,
      "Ġpresentation": 6130,
      "ĠAtl": 6131,
      "'(": 6132,
      "fra": 6133,
      "Ġstatistics": 6134,
      "Ġincorporate": 6135,
      "Ultimately": 6136,
      "Ġleadership": 6137,
      "stood": 6138,
      "Ġremark": 6139,
      "Ġauthority": 6140,
      "Ġawareness": 6141,
      "Ġparallel": 6142,
      "celer": 6143,
      "Ġ'[]": 6144,
      "Ġobst": 6145,
      "Ġkept": 6146,
      "Ġfigures": 6147,
      "ado": 6148,
      "Ġrul": 6149,
      "yr": 6150,
      "Ġda": 6151,
      "ĠPM": 6152,
      "Ġwalking": 6153,
      "Ġjoin": 6154,
      "Ġimmersive": 6155,
      "Ġ'[]'.": 6156,
      "PLAINFORMAT": 6157,
      "ĠFore": 6158,
      "Ġrace": 6159,
      "Ġagg": 6160,
      "ĠMal": 6161,
      "ĠFound": 6162,
      "Ġdiscount": 6163,
      "Ġlanguages": 6164,
      "Emily": 6165,
      "68": 6166,
      "Ġdisorders": 6167,
      "Ġflood": 6168,
      "Ġtried": 6169,
      "Ġcris": 6170,
      "Ġsubtract": 6171,
      "orrect": 6172,
      "Ġlesson": 6173,
      "rolog": 6174,
      "Ġprinciple": 6175,
      "oma": 6176,
      "employ": 6177,
      "ĠFalse": 6178,
      "Ġsignal": 6179,
      "Ġdriven": 6180,
      "ĠDefault": 6181,
      "Ġvehicle": 6182,
      "Ġmouth": 6183,
      "Ġyouth": 6184,
      "Ġanswers": 6185,
      "Ġindustrial": 6186,
      "eria": 6187,
      "agues": 6188,
      "Ġshel": 6189,
      "Ġmaintenance": 6190,
      "enth": 6191,
      "Ġartificial": 6192,
      "Be": 6193,
      "ĠCouncil": 6194,
      "Ġdownload": 6195,
      "books": 6196,
      "oin": 6197,
      "ugg": 6198,
      "ĠEv": 6199,
      "}]</": 6200,
      "atin": 6201,
      "score": 6202,
      "acci": 6203,
      "Ġbow": 6204,
      "Ġdomain": 6205,
      "Ġliqu": 6206,
      "Ġ195": 6207,
      "ĠValueError": 6208,
      "Ġreact": 6209,
      "ĠHam": 6210,
      "Ġenem": 6211,
      "Ġ\\\\": 6212,
      "Ġprimarily": 6213,
      "Ġderivative": 6214,
      "Ġnative": 6215,
      "Ġfort": 6216,
      "Ġdiss": 6217,
      "âĢĿ.": 6218,
      "ĠUnion": 6219,
      "Ġbrown": 6220,
      "Ġplatforms": 6221,
      "AP": 6222,
      "Of": 6223,
      "Ġprove": 6224,
      "no": 6225,
      "ycl": 6226,
      "itial": 6227,
      "ĠMex": 6228,
      "Ġemergency": 6229,
      "iest": 6230,
      "Ġmig": 6231,
      "Ġec": 6232,
      "ogen": 6233,
      "Add": 6234,
      "Ġtro": 6235,
      "Ġtang": 6236,
      "Ġroles": 6237,
      "Ġconcerned": 6238,
      "Ġslowly": 6239,
      "Ġdemonstrate": 6240,
      "Ġvacc": 6241,
      "icing": 6242,
      "ĠURL": 6243,
      "Ġreplaced": 6244,
      "Ġpure": 6245,
      "Ġunus": 6246,
      "Ġwaiting": 6247,
      "Ġvital": 6248,
      "Ġconsists": 6249,
      "Ġproperly": 6250,
      "Ġmarine": 6251,
      "Ġassumptions": 6252,
      "orical": 6253,
      "state": 6254,
      "ĠHol": 6255,
      "position": 6256,
      "Ġbreath": 6257,
      "Ġterrit": 6258,
      "ulating": 6259,
      "ĠRich": 6260,
      "Ġessence": 6261,
      "fmt": 6262,
      "onacci": 6263,
      "Ġdecide": 6264,
      "Line": 6265,
      "Find": 6266,
      "status": 6267,
      "ĠâĢ¦": 6268,
      "peed": 6269,
      "Ġsubsequ": 6270,
      "}$.": 6271,
      "Ġselected": 6272,
      "izon": 6273,
      "Ġperce": 6274,
      "Ġimmune": 6275,
      "agers": 6276,
      "Ġpool": 6277,
      "Ġlabel": 6278,
      "Ġsexual": 6279,
      "Ġfloat": 6280,
      "title": 6281,
      "Ġscan": 6282,
      "Ġmir": 6283,
      "Ġevening": 6284,
      "Ġdaughter": 6285,
      "Ġtheme": 6286,
      "Ġdust": 6287,
      "Ġselection": 6288,
      "ĠOf": 6289,
      "Ġteeth": 6290,
      "Ġcryst": 6291,
      "fall": 6292,
      "ĠType": 6293,
      "rays": 6294,
      "aming": 6295,
      "Ġscenario": 6296,
      "Ġunexpected": 6297,
      "More": 6298,
      "pop": 6299,
      "post": 6300,
      "Ġtrial": 6301,
      "Id": 6302,
      "la": 6303,
      "Ġconven": 6304,
      "Ġunlike": 6305,
      "Ġfirm": 6306,
      "Ġwear": 6307,
      "ĠBay": 6308,
      "Ġgrass": 6309,
      "ĠGeorge": 6310,
      "Ġoverwhel": 6311,
      "CO": 6312,
      "ĠBank": 6313,
      "Ġdisorder": 6314,
      "Ġhealthcare": 6315,
      "Ġafford": 6316,
      "req": 6317,
      "arant": 6318,
      "Ġforget": 6319,
      "Ġexamine": 6320,
      "Ġsoul": 6321,
      "abel": 6322,
      "ĠPublic": 6323,
      "Ġoperator": 6324,
      "Ġdeeply": 6325,
      "ĠSmith": 6326,
      "Ġrepeated": 6327,
      "Ġtum": 6328,
      "ĠSal": 6329,
      "Ġdelete": 6330,
      "Ġrank": 6331,
      "Ġanalyzing": 6332,
      "Ġmph": 6333,
      "fered": 6334,
      "Ġwaves": 6335,
      "ĠItalian": 6336,
      "Ġfacts": 6337,
      "Ġradio": 6338,
      "Ġsensitive": 6339,
      "Ġphotos": 6340,
      "Ġcategories": 6341,
      "Ġrhythm": 6342,
      "ola": 6343,
      "ĠIsland": 6344,
      "Ġtells": 6345,
      "Ġverb": 6346,
      "Ġhus": 6347,
      "idents": 6348,
      "Ġdesc": 6349,
      "cret": 6350,
      "Ġdocuments": 6351,
      "CD": 6352,
      "Ġcapable": 6353,
      "Ġlegis": 6354,
      "write": 6355,
      "ĠAN": 6356,
      "Ġtea": 6357,
      "Ġdirectory": 6358,
      "Ġspiritual": 6359,
      "ĠVirgin": 6360,
      "ilarly": 6361,
      "Ġagree": 6362,
      "Ġpurposes": 6363,
      "ĠDevelopment": 6364,
      "Ġimplies": 6365,
      "ĠPri": 6366,
      "Ġsettle": 6367,
      "Ġstronger": 6368,
      "Ġtransformation": 6369,
      "ibly": 6370,
      "AB": 6371,
      "itage": 6372,
      "Ġdecor": 6373,
      "Ġsociet": 6374,
      "Ġrobust": 6375,
      "Ġcoefficient": 6376,
      "Ġsupported": 6377,
      "itis": 6378,
      "ĠOrgan": 6379,
      "Ġmedium": 6380,
      "Ġclinical": 6381,
      "Ġsupporting": 6382,
      "Ġlegs": 6383,
      "ĠCollege": 6384,
      "ented": 6385,
      "Ġturns": 6386,
      "Ġexcellent": 6387,
      "Ġreaching": 6388,
      "Ġasking": 6389,
      "ena": 6390,
      "Ġstone": 6391,
      "Ġages": 6392,
      "Ġmobile": 6393,
      "pload": 6394,
      "Ġentirely": 6395,
      "lo": 6396,
      "ename": 6397,
      "itz": 6398,
      "Ġcorner": 6399,
      "df": 6400,
      "Ġpull": 6401,
      "Ġschem": 6402,
      "Ġmovements": 6403,
      "dden": 6404,
      "Ġcategory": 6405,
      "Ġobtained": 6406,
      "Ġfruits": 6407,
      "ĠInc": 6408,
      "ttps": 6409,
      "Ġcomment": 6410,
      "Ġinfluenced": 6411,
      "Ġinternet": 6412,
      "Ġtalking": 6413,
      "cip": 6414,
      "gon": 6415,
      "Ġ});": 6416,
      "tw": 6417,
      "endl": 6418,
      "Ġoutliers": 6419,
      "berg": 6420,
      "ĠProduct": 6421,
      "Ġmuscle": 6422,
      "ĠPhys": 6423,
      "Sim": 6424,
      "den": 6425,
      "Ġtypical": 6426,
      "ĠAvoid": 6427,
      "quad": 6428,
      "ĠMem": 6429,
      "Ġgirl": 6430,
      "rum": 6431,
      "Ġliber": 6432,
      "ulf": 6433,
      "Ġgreatly": 6434,
      "Ġlessons": 6435,
      "Ġintellectual": 6436,
      "bi": 6437,
      "ĠDem": 6438,
      "Ġclick": 6439,
      "Ġdiscrim": 6440,
      "ĠâīĪ": 6441,
      "ĠIdent": 6442,
      "elest": 6443,
      "Ġspeaking": 6444,
      "Ġdistingu": 6445,
      "Ġcollected": 6446,
      "Ġinterpretation": 6447,
      "ĠThomas": 6448,
      "Ġgrew": 6449,
      "Ġstreet": 6450,
      "Ġ180": 6451,
      "Ġcritic": 6452,
      "html": 6453,
      "Ġmonitoring": 6454,
      "Su": 6455,
      "zym": 6456,
      "Ġtiny": 6457,
      "orter": 6458,
      "Ġmarg": 6459,
      "Ġsections": 6460,
      "ĠMichael": 6461,
      "ĠSpace": 6462,
      "Ġvegetables": 6463,
      "Ġkeys": 6464,
      "Account": 6465,
      "Ġviolence": 6466,
      "Ġthrow": 6467,
      "ĠGroup": 6468,
      "Ġoffered": 6469,
      "Ġstrange": 6470,
      "Ġimpacts": 6471,
      "Ġidentifying": 6472,
      "Ġintroduce": 6473,
      "Ġrecommended": 6474,
      "orph": 6475,
      "orough": 6476,
      "ĠOld": 6477,
      "Ġdeliver": 6478,
      "Ġcommitment": 6479,
      "Ġalgorithms": 6480,
      "Ġgalax": 6481,
      "pling": 6482,
      "ello": 6483,
      "ny": 6484,
      "Ġtu": 6485,
      "Ġtaught": 6486,
      "\"}}},": 6487,
      "Ġear": 6488,
      "ishes": 6489,
      "Ġbone": 6490,
      "Ġnorthern": 6491,
      "ĠStart": 6492,
      "circ": 6493,
      "Ġhumanity": 6494,
      "Ġlie": 6495,
      "Ġsalt": 6496,
      "App": 6497,
      "Ġloved": 6498,
      "idate": 6499,
      "acific": 6500,
      "Ġconversations": 6501,
      "Imagine": 6502,
      "Ġwait": 6503,
      "ĠĠĠĠĊ": 6504,
      "Ġnoted": 6505,
      "map": 6506,
      "rich": 6507,
      "Ġlose": 6508,
      "Ġinteraction": 6509,
      "Ġrecip": 6510,
      "Ġsudden": 6511,
      "Ġguidelines": 6512,
      "85": 6513,
      "Ġseconds": 6514,
      "vironments": 6515,
      "Ġlimitations": 6516,
      "Ġbot": 6517,
      "Ġstored": 6518,
      "Ġobservations": 6519,
      "47": 6520,
      "ĠRE": 6521,
      "Ġimpossible": 6522,
      "Ġgenes": 6523,
      "Ġfaces": 6524,
      "Ġseeing": 6525,
      "Ġinhabit": 6526,
      "Ġdiscipl": 6527,
      "Ġcircumstances": 6528,
      "OS": 6529,
      "Ġtit": 6530,
      "Ġlic": 6531,
      "Ġhyper": 6532,
      "Ġinstitutions": 6533,
      "Ġtheories": 6534,
      "Ġwasn": 6535,
      "Ġreliable": 6536,
      "Ġcurve": 6537,
      "Ġinvestigation": 6538,
      "Ġsamples": 6539,
      "Ġband": 6540,
      "DA": 6541,
      "Ġdescribes": 6542,
      "ĠBritain": 6543,
      "ĠHuman": 6544,
      "Invalid": 6545,
      "Ġrig": 6546,
      "ĠFind": 6547,
      "Ġplain": 6548,
      "Ġrely": 6549,
      "Ġ2004": 6550,
      "Ġconfig": 6551,
      "Ġsty": 6552,
      "arser": 6553,
      "swer": 6554,
      "Ġmetal": 6555,
      "Ġassessment": 6556,
      "ĠRetrieved": 6557,
      "Value": 6558,
      "ipe": 6559,
      "ns": 6560,
      "ĠSen": 6561,
      "Ġsuit": 6562,
      "Ġbuck": 6563,
      "Ġcolleagues": 6564,
      "pathy": 6565,
      "Ġfarmers": 6566,
      "Type": 6567,
      "Ġmovie": 6568,
      "Ġsurvival": 6569,
      "Ġvehicles": 6570,
      "pace": 6571,
      "Ġretrie": 6572,
      "Ġoperating": 6573,
      "Ġroutine": 6574,
      "Ġstands": 6575,
      "Ġmotor": 6576,
      "roke": 6577,
      "ĠSur": 6578,
      "Ġextensive": 6579,
      "Ġengaged": 6580,
      "Stud": 6581,
      "Ġrural": 6582,
      "Ġmeal": 6583,
      "Ġexciting": 6584,
      "Script": 6585,
      "Ġlimits": 6586,
      "Ġshapes": 6587,
      "));": 6588,
      "image": 6589,
      "Ġsharp": 6590,
      "Ġelev": 6591,
      "ĠBoth": 6592,
      "Ġassert": 6593,
      "Ġassistance": 6594,
      "ĠGovernment": 6595,
      "dep": 6596,
      "hered": 6597,
      "Ġanticip": 6598,
      "Ġdecrease": 6599,
      "ĠTwo": 6600,
      "RU": 6601,
      "Ġparticles": 6602,
      "Ġencounter": 6603,
      "ĠHenry": 6604,
      "Ġhypothesis": 6605,
      "Ġsession": 6606,
      "ĠPaul": 6607,
      "Ġecho": 6608,
      "Ġstem": 6609,
      "ĠSum": 6610,
      "Ġmeat": 6611,
      "ĠJSON": 6612,
      "Ġgenerations": 6613,
      "Ġaffects": 6614,
      "Ġchronic": 6615,
      "ĠBrown": 6616,
      "Ġfulf": 6617,
      "friendly": 6618,
      "Ġinequality": 6619,
      "Ġfell": 6620,
      "Ġinvolving": 6621,
      "Ġmassive": 6622,
      "Ġingredients": 6623,
      "Hi": 6624,
      "Ġtun": 6625,
      "Ġwave": 6626,
      "olf": 6627,
      "rame": 6628,
      "cribe": 6629,
      "rick": 6630,
      "Ġstreets": 6631,
      "phr": 6632,
      "Ġadvoc": 6633,
      "Ġfaced": 6634,
      "ithmetic": 6635,
      "Ġcub": 6636,
      "Ġcaught": 6637,
      "iform": 6638,
      "door": 6639,
      "organ": 6640,
      "ĠWork": 6641,
      "Ġarms": 6642,
      "Ġexpenses": 6643,
      "Up": 6644,
      "TP": 6645,
      "ĠVis": 6646,
      "Ġdefault": 6647,
      "Ġimproving": 6648,
      "Ġforg": 6649,
      "Ġrational": 6650,
      "Ġmarked": 6651,
      "ĠSy": 6652,
      "Ġtradition": 6653,
      "ĠIslam": 6654,
      "Ġpictures": 6655,
      "Ġtissue": 6656,
      "Ġequivalent": 6657,
      "Final": 6658,
      "iences": 6659,
      "Ġfro": 6660,
      "Ġrevealed": 6661,
      "Ġenvironments": 6662,
      "Ġspending": 6663,
      "cluding": 6664,
      "Ġparad": 6665,
      "Are": 6666,
      "iner": 6667,
      "ĠMet": 6668,
      "phone": 6669,
      "Ġ<=": 6670,
      "itors": 6671,
      "Ġintu": 6672,
      "ĠLife": 6673,
      "Ġinitially": 6674,
      "imensional": 6675,
      "Ġknows": 6676,
      "Ġcourses": 6677,
      "Go": 6678,
      "88": 6679,
      "std": 6680,
      "Ġportion": 6681,
      "Ġboys": 6682,
      "ĠSpanish": 6683,
      "while": 6684,
      "Ġsen": 6685,
      "asp": 6686,
      "Ġregards": 6687,
      "Ġroute": 6688,
      "attle": 6689,
      "riculum": 6690,
      "Ġinsurance": 6691,
      "Ġminute": 6692,
      "Ġgrade": 6693,
      "Ġfacilities": 6694,
      "Ġappearance": 6695,
      "inn": 6696,
      "ĠItaly": 6697,
      "Ġtemp": 6698,
      "Ġheads": 6699,
      "sql": 6700,
      "Ġfears": 6701,
      "Ġcompetition": 6702,
      "Print": 6703,
      "but": 6704,
      "andon": 6705,
      "Ġretain": 6706,
      "Ġacceler": 6707,
      "Ġinspired": 6708,
      "ĠCourt": 6709,
      "abits": 6710,
      "Ġneut": 6711,
      "Ġcoal": 6712,
      "Ġexpansion": 6713,
      "Ġinstructions": 6714,
      "Ġbridge": 6715,
      "ĠWhy": 6716,
      "azing": 6717,
      "Ġdecline": 6718,
      "Ġmountain": 6719,
      "Ġinstrument": 6720,
      "Ġfabric": 6721,
      "ching": 6722,
      "ĠMass": 6723,
      "ighter": 6724,
      "ĠMiddle": 6725,
      "ĠVict": 6726,
      "Ġbrings": 6727,
      "Ġpounds": 6728,
      "Ġbird": 6729,
      "Ġgun": 6730,
      "ollow": 6731,
      "trans": 6732,
      "lig": 6733,
      "Ġbag": 6734,
      "Ġloyal": 6735,
      "ether": 6736,
      "Ġongoing": 6737,
      "Ġconfir": 6738,
      "Ġchief": 6739,
      "Ġentry": 6740,
      "rey": 6741,
      "Ġobvious": 6742,
      "uit": 6743,
      "Ġindu": 6744,
      "Ġconfront": 6745,
      "}$,": 6746,
      "Ġcomfortable": 6747,
      "ĠRobert": 6748,
      "46": 6749,
      "comm": 6750,
      "Ġmitig": 6751,
      "Ġgrown": 6752,
      "atever": 6753,
      "Ġunw": 6754,
      "Ġdoors": 6755,
      "Ġunderstood": 6756,
      "Ġfluid": 6757,
      "nel": 6758,
      "aria": 6759,
      "Ġappoint": 6760,
      "Ġroof": 6761,
      "Ġsubjects": 6762,
      "hi": 6763,
      "Ġca": 6764,
      "urity": 6765,
      "ĠBC": 6766,
      "Ġju": 6767,
      "Ġexposed": 6768,
      "inent": 6769,
      "Ġinjury": 6770,
      "ounce": 6771,
      "Ġpersons": 6772,
      "ventional": 6773,
      "Ġ2015": 6774,
      "Ġbreed": 6775,
      "Ġfunds": 6776,
      "Ġmanufacture": 6777,
      "Ġsurgery": 6778,
      "ĠFood": 6779,
      "Ġpollution": 6780,
      "rec": 6781,
      "Ġagreement": 6782,
      "Ġtherm": 6783,
      "Ġaren": 6784,
      "Ġradiation": 6785,
      "Ġofficials": 6786,
      "Ġtaste": 6787,
      "reds": 6788,
      "ĠToday": 6789,
      "racy": 6790,
      "Ġframe": 6791,
      "lamm": 6792,
      "Ġbehaviors": 6793,
      "89": 6794,
      "lers": 6795,
      "ĠCD": 6796,
      "ĠInf": 6797,
      "Ġpreferences": 6798,
      "Ġcorpor": 6799,
      "Ġhumor": 6800,
      "Ġwildlife": 6801,
      "Ġlifest": 6802,
      "imer": 6803,
      "Ġeager": 6804,
      "Ġclients": 6805,
      "Ġfacing": 6806,
      "ING": 6807,
      "Ġindicating": 6808,
      "Ġnetworks": 6809,
      "atter": 6810,
      "rain": 6811,
      "gments": 6812,
      "asive": 6813,
      "ĠGood": 6814,
      "Ġdiscussing": 6815,
      "ĠCarol": 6816,
      "Ġwatching": 6817,
      "unately": 6818,
      "essions": 6819,
      "Ġ32": 6820,
      "%.": 6821,
      "essor": 6822,
      "ĠHel": 6823,
      "Ġenable": 6824,
      "Ġescape": 6825,
      "Ġ400": 6826,
      "Ġmeasured": 6827,
      "aturally": 6828,
      "cs": 6829,
      "});": 6830,
      "ractions": 6831,
      "Ġfailed": 6832,
      "Ġsail": 6833,
      "Ġdut": 6834,
      "raction": 6835,
      "Ġimper": 6836,
      "ĠAcadem": 6837,
      "Many": 6838,
      "Ġdealing": 6839,
      "Ġsector": 6840,
      "Ġdisappe": 6841,
      "Ġexpon": 6842,
      "According": 6843,
      "77": 6844,
      "chen": 6845,
      "Ġcats": 6846,
      "Ġdensity": 6847,
      "Ġalive": 6848,
      "cons": 6849,
      "Ġhighlights": 6850,
      "Ġgoods": 6851,
      "Ġpromoting": 6852,
      "gr": 6853,
      "ini": 6854,
      "Ġban": 6855,
      "ĠJer": 6856,
      "ifications": 6857,
      "Ġminimize": 6858,
      "Ġdiscussed": 6859,
      "ĠMuslim": 6860,
      "SA": 6861,
      "cers": 6862,
      "pare": 6863,
      "roid": 6864,
      "java": 6865,
      "mp": 6866,
      "pes": 6867,
      "Ġswe": 6868,
      "irt": 6869,
      "Ġstruggling": 6870,
      "roduction": 6871,
      "SQL": 6872,
      "Ġantib": 6873,
      "Ġposts": 6874,
      "pack": 6875,
      "ĠPacific": 6876,
      "Ġparties": 6877,
      "ĠYet": 6878,
      "Ġexplicit": 6879,
      "());": 6880,
      "ĠReturn": 6881,
      "Ġdarkness": 6882,
      "Ġconflicts": 6883,
      "Ġhorse": 6884,
      "Ġexhibit": 6885,
      "Ġovercome": 6886,
      "Ġpassing": 6887,
      "Ġsupports": 6888,
      "Ġclimb": 6889,
      "Ġpossibly": 6890,
      "CH": 6891,
      "then": 6892,
      "Ã¡": 6893,
      "Ġshot": 6894,
      "Ġsubstant": 6895,
      "Ġmaybe": 6896,
      "ĠProject": 6897,
      "ĠCommission": 6898,
      "Ġopposite": 6899,
      "Ġpretty": 6900,
      ")/": 6901,
      "herent": 6902,
      "ĠService": 6903,
      "ĠBer": 6904,
      "Ġtwist": 6905,
      "Ġrespectively": 6906,
      "elestial": 6907,
      "^(": 6908,
      "Ġsell": 6909,
      "Ġmood": 6910,
      "Ġmostly": 6911,
      "Ġends": 6912,
      "Ġlargely": 6913,
      "Ġhabitat": 6914,
      "faces": 6915,
      "Ġenab": 6916,
      "Ġopened": 6917,
      "Ġbread": 6918,
      "Ġpover": 6919,
      "free": 6920,
      "ii": 6921,
      "create": 6922,
      "Ġrealize": 6923,
      "Ġrecognized": 6924,
      "win": 6925,
      "Ġgar": 6926,
      "ĠMac": 6927,
      "Ġnoise": 6928,
      "Ġcutting": 6929,
      "().": 6930,
      "Ġmanaged": 6931,
      "Ġentertain": 6932,
      "ĠEnergy": 6933,
      "Ġmachines": 6934,
      "ĠJews": 6935,
      "ĠCle": 6936,
      "Ġwearing": 6937,
      "ĠPet": 6938,
      "Ġdoctors": 6939,
      "Ġopinion": 6940,
      "last": 6941,
      "atal": 6942,
      "Ġremote": 6943,
      "Ġfriendly": 6944,
      "Ġcontrolled": 6945,
      "Ġpoverty": 6946,
      "Americ": 6947,
      "BN": 6948,
      "ĠSQL": 6949,
      "Ġformation": 6950,
      "Ġphilosophy": 6951,
      "cest": 6952,
      "Ġhorm": 6953,
      "Ġextent": 6954,
      "Ġuncertainty": 6955,
      "gu": 6956,
      "ĠFunction": 6957,
      "aked": 6958,
      "Ġattacks": 6959,
      "Ġhorizon": 6960,
      "Out": 6961,
      "heast": 6962,
      "Ġperm": 6963,
      "Ġ31": 6964,
      "ĠAsia": 6965,
      "Ġsed": 6966,
      "isation": 6967,
      "Ġbroken": 6968,
      "Ġunusual": 6969,
      "cher": 6970,
      "ĠTex": 6971,
      "aks": 6972,
      "Ġ2003": 6973,
      "Ġtoxic": 6974,
      "anes": 6975,
      "ĠCath": 6976,
      "ĠCivil": 6977,
      "Ġdear": 6978,
      "holders": 6979,
      "((": 6980,
      "ona": 6981,
      "Ġtravels": 6982,
      "Ġaddressing": 6983,
      "Ġlayers": 6984,
      "ĠCharles": 6985,
      "veys": 6986,
      "ĠBas": 6987,
      "aped": 6988,
      "Ġfunctional": 6989,
      "arsh": 6990,
      "Ġ2001": 6991,
      "ĠWho": 6992,
      "Ġrelation": 6993,
      "Ġstores": 6994,
      "Ġpronouns": 6995,
      "Book": 6996,
      "Ġnerv": 6997,
      "Ġperforming": 6998,
      "Ġdirector": 6999,
      "Ġshaped": 7000,
      "Ġbranches": 7001,
      "Ġpassengers": 7002,
      "parent": 7003,
      "Ġstood": 7004,
      "ĠMag": 7005,
      "Ġ2002": 7006,
      "azon": 7007,
      "Ġboost": 7008,
      "Ġgone": 7009,
      "Ġexceed": 7010,
      "Ġsched": 7011,
      "Ġowner": 7012,
      "Ġmonitor": 7013,
      "Ġstead": 7014,
      "Ġourselves": 7015,
      "Ġsplit": 7016,
      "Ġexpensive": 7017,
      "Ġcooking": 7018,
      "Ġgolden": 7019,
      "Ġdangerous": 7020,
      "Ġprofessionals": 7021,
      "95": 7022,
      "Ġpositions": 7023,
      "Ġsolving": 7024,
      "Ġguarant": 7025,
      "Ġregularly": 7026,
      "Key": 7027,
      "Ġfoss": 7028,
      "Ġrapidly": 7029,
      "ĠTake": 7030,
      "Ġdele": 7031,
      "ĠRome": 7032,
      "okes": 7033,
      "Ġinfections": 7034,
      "Ġdepart": 7035,
      "Ġtowns": 7036,
      "CC": 7037,
      "night": 7038,
      "pire": 7039,
      "Ġfif": 7040,
      "Ġthorough": 7041,
      "Ġseeds": 7042,
      "ĠKore": 7043,
      "oves": 7044,
      "Ġdistributed": 7045,
      "Product": 7046,
      "ĠCam": 7047,
      "Ġstrengths": 7048,
      "Ġcert": 7049,
      "Ġgender": 7050,
      "that": 7051,
      "Ġfashion": 7052,
      "Ġarithmetic": 7053,
      "][": 7054,
      "uses": 7055,
      "Ġabandon": 7056,
      "Ġ190": 7057,
      "Ġargs": 7058,
      "ĠFranc": 7059,
      "Ġdelicate": 7060,
      "api": 7061,
      "Ġparticipate": 7062,
      "ĠStudents": 7063,
      "Ġmountains": 7064,
      "Ġprocedure": 7065,
      "Ġcomparison": 7066,
      "Search": 7067,
      "ircraft": 7068,
      "points": 7069,
      "ĠMedicine": 7070,
      "rations": 7071,
      "Ġsouthern": 7072,
      "Ġdepict": 7073,
      "Ġguard": 7074,
      "Ġelectrical": 7075,
      "Ġcertainly": 7076,
      "Ġneighb": 7077,
      "Ġrestaurant": 7078,
      "Ġnodes": 7079,
      "ĠĠĠĠĠĠĠĠĠĠĠĠĠĠĠĠĠĠĠĠĠĠĠ": 7080,
      "Ġprofessor": 7081,
      "({": 7082,
      "Comm": 7083,
      "aled": 7084,
      "Ġhabits": 7085,
      "ĠNAS": 7086,
      "Ġrequests": 7087,
      "Ġfly": 7088,
      "Ġcorrectly": 7089,
      "Ġcontributions": 7090,
      "Bl": 7091,
      "rates": 7092,
      "ĠSpec": 7093,
      "cluded": 7094,
      "ĠYear": 7095,
      "Ġappeared": 7096,
      "Ġuncover": 7097,
      "ya": 7098,
      "Ġinstruction": 7099,
      "Ġce": 7100,
      "Ġstick": 7101,
      "Ġwithdraw": 7102,
      "Ġexplo": 7103,
      "Ġdiscussions": 7104,
      "Ġthin": 7105,
      "ĠAtt": 7106,
      "empty": 7107,
      "obe": 7108,
      "ulates": 7109,
      "Ġsole": 7110,
      "Ġcrime": 7111,
      "},{\"": 7112,
      "ĠClass": 7113,
      "ĠCentral": 7114,
      "ilia": 7115,
      "ĠAD": 7116,
      "Through": 7117,
      "Ġshut": 7118,
      "ĠRob": 7119,
      "ferent": 7120,
      "Ġconfident": 7121,
      "Ġmoves": 7122,
      "Ġimmediate": 7123,
      "dimensional": 7124,
      "omic": 7125,
      "integer": 7126,
      "ĠExample": 7127,
      "ULL": 7128,
      "Ġseed": 7129,
      "Ġabstract": 7130,
      "ĠName": 7131,
      "Ġapparent": 7132,
      "Ġchildhood": 7133,
      "ENT": 7134,
      "Ġrecommendations": 7135,
      "ĠChildren": 7136,
      "Ġneighborhood": 7137,
      "Ġliquid": 7138,
      "kes": 7139,
      "imeter": 7140,
      "Ġlung": 7141,
      "ðŁ": 7142,
      "Ġexplained": 7143,
      "Ġbutter": 7144,
      "Ġurl": 7145,
      "Ġcrisis": 7146,
      "Ġproceed": 7147,
      "ĠLin": 7148,
      "ĠNews": 7149,
      "Ġfraction": 7150,
      "Ġknowing": 7151,
      "Ġrom": 7152,
      "claim": 7153,
      "Ġinval": 7154,
      "Ġsunlight": 7155,
      "Ġdrinking": 7156,
      "43": 7157,
      "ville": 7158,
      "Ġyield": 7159,
      "ĠInformation": 7160,
      "Ġlock": 7161,
      "Ġstoryt": 7162,
      "Ġstruggles": 7163,
      "63": 7164,
      "Ġdrop": 7165,
      "Ġsmallest": 7166,
      "plicated": 7167,
      "Ġshadows": 7168,
      "Ġresilience": 7169,
      "Ġchapter": 7170,
      "Ġstable": 7171,
      "Ġrooms": 7172,
      "Ġserving": 7173,
      "Ġorganized": 7174,
      "MS": 7175,
      "UR": 7176,
      "close": 7177,
      "Ġbiological": 7178,
      "Ġnegot": 7179,
      "Once": 7180,
      "aid": 7181,
      "rox": 7182,
      "Ġ48": 7183,
      "Ġmodify": 7184,
      "Ġcareful": 7185,
      "\"]}}},{\"": 7186,
      "ĠTexas": 7187,
      "ĠBre": 7188,
      "neg": 7189,
      "Ġinher": 7190,
      "Ġrein": 7191,
      "Ġasc": 7192,
      "acher": 7193,
      "ĠAnother": 7194,
      "Ġprotected": 7195,
      "Ġaccepted": 7196,
      "Ġdependent": 7197,
      "ĠVirginia": 7198,
      "Che": 7199,
      "Each": 7200,
      "asm": 7201,
      "Ġarmy": 7202,
      "42": 7203,
      "itud": 7204,
      "othe": 7205,
      "Ġskill": 7206,
      "Ġallerg": 7207,
      "Ġpoet": 7208,
      "Ġbeneficial": 7209,
      "Ġyounger": 7210,
      "Ġsatisfaction": 7211,
      "hist": 7212,
      "Ġsustainability": 7213,
      "Ġrows": 7214,
      "Ġmaps": 7215,
      "Ġarts": 7216,
      "Ġholding": 7217,
      "Ġwitness": 7218,
      "oxide": 7219,
      "Ġcombinations": 7220,
      "Ġbond": 7221,
      "Ġproducing": 7222,
      "Ġworldwide": 7223,
      "ĠLouis": 7224,
      "gent": 7225,
      "person": 7226,
      "Ġdestination": 7227,
      "Get": 7228,
      "Ġpartial": 7229,
      "Ġeveryday": 7230,
      "Ġgovernments": 7231,
      "Ġchemicals": 7232,
      "craft": 7233,
      "this": 7234,
      "osa": 7235,
      "Ġeffectiveness": 7236,
      "Ġemotion": 7237,
      "Ġchecking": 7238,
      "ĠCompany": 7239,
      "Ġenzym": 7240,
      "Ġsurrounded": 7241,
      "Ġexperiments": 7242,
      "Ġcelestial": 7243,
      "Ġvoc": 7244,
      "cribed": 7245,
      "inked": 7246,
      "Ġregist": 7247,
      "Ġdelight": 7248,
      "ibrary": 7249,
      "Ġquadratic": 7250,
      "TO": 7251,
      "sl": 7252,
      "Ġbask": 7253,
      "Ġreput": 7254,
      "ĠHall": 7255,
      "ĠHIV": 7256,
      "Ġupdates": 7257,
      "Ġcamera": 7258,
      "Ġobstac": 7259,
      "ivery": 7260,
      "push": 7261,
      "Ġmanaging": 7262,
      "ewrite": 7263,
      "Ġrelatable": 7264,
      "gest": 7265,
      "Ġfiction": 7266,
      "ading": 7267,
      "ĠBel": 7268,
      "ĠWind": 7269,
      "ibonacci": 7270,
      "ensus": 7271,
      "Ġcouldn": 7272,
      "ĠStep": 7273,
      "____": 7274,
      "Ġcultiv": 7275,
      "Ġswim": 7276,
      "ĠRussian": 7277,
      "Ġtank": 7278,
      "oven": 7279,
      "Ġfewer": 7280,
      "Ġagency": 7281,
      "Ġoriginally": 7282,
      "ometimes": 7283,
      "Ġ1990": 7284,
      "ĠVictor": 7285,
      "resent": 7286,
      "Ġpoem": 7287,
      "Ġmysteries": 7288,
      "ĠMedical": 7289,
      "Ġimagine": 7290,
      "dat": 7291,
      "ctic": 7292,
      "Ġintense": 7293,
      "ĠNor": 7294,
      "Ġaccident": 7295,
      "ĠPower": 7296,
      "ĠThink": 7297,
      "ĠOh": 7298,
      "Ġgravity": 7299,
      "Ġpil": 7300,
      "acies": 7301,
      "Ġsupplies": 7302,
      "Ġkilomet": 7303,
      "Ġpip": 7304,
      "abul": 7305,
      "Ġcha": 7306,
      "ĠOpen": 7307,
      "Ġ$$": 7308,
      "Ġrecycl": 7309,
      "Ġcontainer": 7310,
      "Ġimprovements": 7311,
      "ĠSir": 7312,
      "ĠForm": 7313,
      "Ġ$(": 7314,
      "Ġoptimize": 7315,
      "Ġnormally": 7316,
      "Ġpsychological": 7317,
      "cyclop": 7318,
      "ĠNASA": 7319,
      "ota": 7320,
      "ĠEst": 7321,
      "Ġspr": 7322,
      "Ġillness": 7323,
      "Ġmuseum": 7324,
      "Hand": 7325,
      "Ġsan": 7326,
      "ĠDan": 7327,
      "Ġplastic": 7328,
      "Ġmodified": 7329,
      "See": 7330,
      "nic": 7331,
      "Ġcart": 7332,
      "Ġadm": 7333,
      "Ġcurriculum": 7334,
      "State": 7335,
      "Also": 7336,
      "Ab": 7337,
      "Tra": 7338,
      "^\\": 7339,
      "};": 7340,
      "ibilities": 7341,
      "Ġwet": 7342,
      "Ġweigh": 7343,
      "Ġvolunte": 7344,
      "Ġexpressions": 7345,
      "41": 7346,
      "Ġstated": 7347,
      "Ġruns": 7348,
      "Ġalgebraic": 7349,
      "Ġdistant": 7350,
      "Ġnob": 7351,
      "Ġ(-": 7352,
      "indrome": 7353,
      "Ġtreatments": 7354,
      "Ġrecorded": 7355,
      "arks": 7356,
      "ifier": 7357,
      "ĠSarah": 7358,
      "ĠMax": 7359,
      "ĠDist": 7360,
      "ustomer": 7361,
      "Ġprotocol": 7362,
      "Ġteams": 7363,
      "ĠCommon": 7364,
      "Ġsurvive": 7365,
      "Ġaims": 7366,
      "ano": 7367,
      "Ġcomments": 7368,
      "ĠDiv": 7369,
      "asts": 7370,
      "Ġspin": 7371,
      "Ġintegration": 7372,
      "Ġlights": 7373,
      "Ġindustries": 7374,
      "Ġkinds": 7375,
      "Ġdiagnosis": 7376,
      ",'": 7377,
      "range": 7378,
      "ye": 7379,
      "ione": 7380,
      "rypt": 7381,
      "Ġpolitics": 7382,
      "Ġdiversity": 7383,
      "Reg": 7384,
      "Ġgro": 7385,
      "Ġrefine": 7386,
      "Ġturning": 7387,
      "Ġmarriage": 7388,
      "car": 7389,
      "table": 7390,
      "Ġalter": 7391,
      "Ġapplying": 7392,
      "ĠConf": 7393,
      "Ġforests": 7394,
      "Ġdoubt": 7395,
      "Ġsubstantial": 7396,
      "osph": 7397,
      "ĠLake": 7398,
      "Ġ2016": 7399,
      "rightarrow": 7400,
      "isk": 7401,
      "ĠTom": 7402,
      "Ġforth": 7403,
      "ĠStreet": 7404,
      "ventions": 7405,
      "User": 7406,
      "Ġorders": 7407,
      "Ġhundred": 7408,
      "uce": 7409,
      "Ġtales": 7410,
      "ushed": 7411,
      "Ġmatters": 7412,
      "Ġpuzz": 7413,
      "Ġpra": 7414,
      "storm": 7415,
      "âĢĿ,": 7416,
      "Ġextended": 7417,
      "Ġdetermination": 7418,
      "Ġimplementing": 7419,
      "Ġpaths": 7420,
      "Overall": 7421,
      "ascular": 7422,
      "Ġquantity": 7423,
      "Ġproportion": 7424,
      "Yes": 7425,
      "begin": 7426,
      "pir": 7427,
      "Ġnaturally": 7428,
      "Ġstake": 7429,
      "Ġsuc": 7430,
      "Ġcloud": 7431,
      "Ġprints": 7432,
      "Ġforever": 7433,
      "fficients": 7434,
      "Ġderived": 7435,
      "Ġmerely": 7436,
      "Ġlifestyle": 7437,
      "Ġwish": 7438,
      "Ġhaz": 7439,
      "Ġsimplify": 7440,
      "Ġharvest": 7441,
      "During": 7442,
      "leq": 7443,
      "umin": 7444,
      "Most": 7445,
      "Requ": 7446,
      "rons": 7447,
      "Ġfilt": 7448,
      "Ġreverse": 7449,
      "ĠBro": 7450,
      "ĠFrancis": 7451,
      "Don": 7452,
      "bal": 7453,
      "Ġsessions": 7454,
      "owered": 7455,
      "Ġcompass": 7456,
      "iations": 7457,
      "Ġpray": 7458,
      "Thus": 7459,
      "Ġmemor": 7460,
      "Despite": 7461,
      "Ġwire": 7462,
      "item": 7463,
      "anch": 7464,
      "ĠAM": 7465,
      "Ġ->": 7466,
      "Ġcomposition": 7467,
      "ĠStand": 7468,
      "!<|": 7469,
      "bf": 7470,
      "Ġ\")": 7471,
      "Ġnoting": 7472,
      "Ġrecovery": 7473,
      "Ġregional": 7474,
      "anguage": 7475,
      "Ġcrim": 7476,
      "Ġearthqu": 7477,
      "CA": 7478,
      "ij": 7479,
      "inction": 7480,
      "itan": 7481,
      "Ġinterface": 7482,
      "Ġmechanisms": 7483,
      "Ġflexible": 7484,
      "pm": 7485,
      "Â²": 7486,
      "Ġrephr": 7487,
      "Ġbeings": 7488,
      "Ġlect": 7489,
      "azz": 7490,
      "Ġdebate": 7491,
      "Ġreligion": 7492,
      "Ġhusband": 7493,
      "zen": 7494,
      "Ġwine": 7495,
      "ĠNav": 7496,
      "Ġprincip": 7497,
      "Ġepis": 7498,
      "SS": 7499,
      "ĠViet": 7500,
      "Ġdesigns": 7501,
      "ĠSea": 7502,
      "87": 7503,
      "Ġnit": 7504,
      "Ġperman": 7505,
      "Ġoutl": 7506,
      "Ġvisible": 7507,
      "ĠReview": 7508,
      "Ġprocedures": 7509,
      "Ġhundreds": 7510,
      "Ġagricultural": 7511,
      "otics": 7512,
      "ĠGold": 7513,
      "Ġobserve": 7514,
      "ĠManagement": 7515,
      "Ġillustrate": 7516,
      "first": 7517,
      "ĠTem": 7518,
      "Ġweap": 7519,
      "igure": 7520,
      "ĠMicro": 7521,
      "ocument": 7522,
      "Ġtraum": 7523,
      "Ġblend": 7524,
      "Ġcarrying": 7525,
      "arer": 7526,
      "ĠEngine": 7527,
      "Ġdisaster": 7528,
      "uesday": 7529,
      "Ġexplains": 7530,
      "Ġ2014": 7531,
      "Ġencount": 7532,
      "Ġtut": 7533,
      "Ġnoticed": 7534,
      "apes": 7535,
      "Ġforecast": 7536,
      "plicate": 7537,
      "Ġreward": 7538,
      "ĠDefaults": 7539,
      "edy": 7540,
      "ĠArab": 7541,
      "Ġemployment": 7542,
      "ATE": 7543,
      "jection": 7544,
      "ounded": 7545,
      "Ġconcentration": 7546,
      "void": 7547,
      "Ġplots": 7548,
      "Ġrecall": 7549,
      "Ġrecognition": 7550,
      "Ġcoefficients": 7551,
      "foot": 7552,
      "Ġcoun": 7553,
      "Ġvivid": 7554,
      "Ġshowc": 7555,
      "Ġcaptiv": 7556,
      "stone": 7557,
      "Ġadvert": 7558,
      "itely": 7559,
      "Ġsmile": 7560,
      "Ġreflection": 7561,
      "values": 7562,
      "Ġawait": 7563,
      "Ġphotograph": 7564,
      "Ġdomestic": 7565,
      "ĠMont": 7566,
      "Ġmechanism": 7567,
      "Text": 7568,
      "icago": 7569,
      "idth": 7570,
      "ĠWild": 7571,
      "Ġpublication": 7572,
      "Ġnutrition": 7573,
      "struct": 7574,
      "ĠThrough": 7575,
      "Ġdesert": 7576,
      "redict": 7577,
      "Client": 7578,
      "ĠRussia": 7579,
      "local": 7580,
      "elled": 7581,
      "Ġrail": 7582,
      "ĠEmpire": 7583,
      "Ġbringing": 7584,
      "Ġmur": 7585,
      "Ġstability": 7586,
      "ĠCa": 7587,
      "Ġvan": 7588,
      "ĠHaw": 7589,
      "tail": 7590,
      "ette": 7591,
      "Ġvot": 7592,
      "acent": 7593,
      "Ġride": 7594,
      "Ġworry": 7595,
      "Ġ65": 7596,
      "Ġremainder": 7597,
      "Ġangles": 7598,
      "Ġsettings": 7599,
      "ĠISBN": 7600,
      "Ġcrops": 7601,
      "2000": 7602,
      "Ed": 7603,
      "ĠPeter": 7604,
      "Other": 7605,
      "PD": 7606,
      "Ġdefect": 7607,
      "Ġmetap": 7608,
      ".âĢĻ": 7609,
      "ĠLu": 7610,
      "Ġtraits": 7611,
      "Ġwriters": 7612,
      "ounced": 7613,
      "Ġcorrel": 7614,
      "Ġdetective": 7615,
      "Ġafra": 7616,
      "itual": 7617,
      "Ġnations": 7618,
      "Ġempathy": 7619,
      "ROM": 7620,
      "Ġ?": 7621,
      "Ġreactions": 7622,
      "ads": 7623,
      "ady": 7624,
      "Ġadequ": 7625,
      "Ġtrials": 7626,
      "Ġphenomenon": 7627,
      "ĠKeep": 7628,
      "ĠTechnology": 7629,
      "hour": 7630,
      "idity": 7631,
      "chant": 7632,
      "oseph": 7633,
      "clusions": 7634,
      "Ġlatter": 7635,
      "jav": 7636,
      "eting": 7637,
      "ĠOx": 7638,
      "Ġintersection": 7639,
      "Ġhonest": 7640,
      "pread": 7641,
      "Ġq": 7642,
      "Ġsoph": 7643,
      "izer": 7644,
      "plete": 7645,
      "Ġnewsp": 7646,
      "hesis": 7647,
      "Ġlistening": 7648,
      "Ġentered": 7649,
      "Ġwindows": 7650,
      "Ġdynamics": 7651,
      "Ġmillions": 7652,
      "abulary": 7653,
      "Ġafraid": 7654,
      "story": 7655,
      "Ġconcrete": 7656,
      "ĠEth": 7657,
      "ogether": 7658,
      "ĠIns": 7659,
      "Ġtested": 7660,
      "lessly": 7661,
      "Ġtraveled": 7662,
      "Ġcommitted": 7663,
      "Ġpicking": 7664,
      "Ġagriculture": 7665,
      "Ġscholars": 7666,
      "ĠMexico": 7667,
      "HO": 7668,
      "Ġreform": 7669,
      "Ġunless": 7670,
      "Ġdispl": 7671,
      "Ġattached": 7672,
      "Ġtraveling": 7673,
      "code": 7674,
      "eal": 7675,
      "Ġpod": 7676,
      "ĠPerson": 7677,
      "}}{": 7678,
      "Ġislands": 7679,
      "400": 7680,
      "Mod": 7681,
      "fix": 7682,
      "inet": 7683,
      "Ġclothing": 7684,
      "dem": 7685,
      "Ġgrant": 7686,
      "ĠFam": 7687,
      "Alternatively": 7688,
      "anta": 7689,
      "Although": 7690,
      "Ġproteins": 7691,
      "Ġheavily": 7692,
      "ĠRichard": 7693,
      "sor": 7694,
      "ĠSec": 7695,
      "umes": 7696,
      "Ġraw": 7697,
      "Ġsignals": 7698,
      "Ġmarkets": 7699,
      "ĠLearning": 7700,
      "Ġsucceed": 7701,
      "orous": 7702,
      "Ġreject": 7703,
      "Ġancest": 7704,
      "ĠBi": 7705,
      "Ġcomplexities": 7706,
      "Ġmarbles": 7707,
      "Ġcolumns": 7708,
      "ndrome": 7709,
      "Ġgift": 7710,
      "ĠPoint": 7711,
      "Ġsegment": 7712,
      "Ġprev": 7713,
      "Ġwarming": 7714,
      "fast": 7715,
      "mas": 7716,
      "Ġsought": 7717,
      "Ġdistances": 7718,
      "Ġdraft": 7719,
      "Ġavailability": 7720,
      "ĠFlor": 7721,
      "matrix": 7722,
      "Ġarrived": 7723,
      "ponse": 7724,
      "Ġ)": 7725,
      "Ġarchae": 7726,
      "Te": 7727,
      "div": 7728,
      "ÃŃ": 7729,
      "Ġaircraft": 7730,
      "Ġships": 7731,
      "Ġtraditions": 7732,
      "Ġdimensions": 7733,
      "Ġpunct": 7734,
      "Ġbeans": 7735,
      "Ġremoving": 7736,
      "Ġcontradict": 7737,
      "Am": 7738,
      "Ġtwe": 7739,
      "Ġaqu": 7740,
      "Ġtooth": 7741,
      "Ġagencies": 7742,
      "cules": 7743,
      "ĠAnn": 7744,
      "ĠArmy": 7745,
      "rh": 7746,
      "Ġassemb": 7747,
      "Ġrising": 7748,
      "Ġcrop": 7749,
      "Ġediting": 7750,
      "Ġsacr": 7751,
      "Ġrenewable": 7752,
      "angers": 7753,
      "Ġmonthly": 7754,
      "Ġsubstance": 7755,
      "Ġmoist": 7756,
      "ĠFoundation": 7757,
      "Ġinhabitants": 7758,
      "Ġtale": 7759,
      "Ġbear": 7760,
      "Ġchick": 7761,
      "Ġunable": 7762,
      "Ġbalanced": 7763,
      "squ": 7764,
      "ĠSl": 7765,
      "Ġplate": 7766,
      "Ġdollars": 7767,
      "len": 7768,
      "Ġgaze": 7769,
      "Ġdecimal": 7770,
      "Ġmixed": 7771,
      "ĠBible": 7772,
      "ĠElect": 7773,
      "Ġperception": 7774,
      "Ġcomplement": 7775,
      "ĠMrs": 7776,
      "born": 7777,
      "Ġhole": 7778,
      "Ġtrained": 7779,
      "EM": 7780,
      "Ġdb": 7781,
      "Ġdress": 7782,
      "email": 7783,
      "ĠHand": 7784,
      "weight": 7785,
      "Ġdigit": 7786,
      "rat": 7787,
      "ĠFace": 7788,
      "Ġmuscles": 7789,
      "Implement": 7790,
      "Ġhonor": 7791,
      "Ġreminder": 7792,
      "itivity": 7793,
      "ouds": 7794,
      "Ġresolution": 7795,
      "idespread": 7796,
      "Ġexcit": 7797,
      "Ġestimates": 7798,
      "Ġdestroyed": 7799,
      "Extract": 7800,
      "chers": 7801,
      "gal": 7802,
      "quality": 7803,
      "rip": 7804,
      "Ġrid": 7805,
      "Ġtestament": 7806,
      "Ġpromise": 7807,
      "Who": 7808,
      "Ġinjuries": 7809,
      "Ġnutrients": 7810,
      "61": 7811,
      "Ret": 7812,
      "Ġsarc": 7813,
      "oto": 7814,
      "ibl": 7815,
      "Ġwhereas": 7816,
      "Ġequally": 7817,
      "Ġhappiness": 7818,
      "Ġauthorities": 7819,
      "Ġinspire": 7820,
      "Ġacknowled": 7821,
      "Le": 7822,
      "istan": 7823,
      "Ġvote": 7824,
      "operation": 7825,
      "ĠLong": 7826,
      "ĠLatin": 7827,
      "Ġsophistic": 7828,
      "Ġtight": 7829,
      "Ġstages": 7830,
      "Ġcalculations": 7831,
      "Ġ2017": 7832,
      "ĠSecond": 7833,
      "ĠNOT": 7834,
      "war": 7835,
      "ĠÏĢ": 7836,
      "Ġtables": 7837,
      "Ġod": 7838,
      "Ġnurs": 7839,
      "ĠCapt": 7840,
      "Ġwouldn": 7841,
      "Ġoptimal": 7842,
      "Ġresponsibilities": 7843,
      "Ġcollective": 7844,
      "Ġbeat": 7845,
      "Ġhistoric": 7846,
      "igenous": 7847,
      "DE": 7848,
      "zed": 7849,
      "Ġsou": 7850,
      "Ġalloc": 7851,
      "Ġdefe": 7852,
      "Ġbreaking": 7853,
      "Ġelectronic": 7854,
      "Ġbiology": 7855,
      "Ġstorytelling": 7856,
      "Writ": 7857,
      "Ġath": 7858,
      "athered": 7859,
      "Ġpig": 7860,
      "Ġinqu": 7861,
      "abeth": 7862,
      "Ġcalm": 7863,
      "Ġintegrated": 7864,
      "Ġwebsites": 7865,
      "Ġvideos": 7866,
      "ocratic": 7867,
      "ki": 7868,
      "normal": 7869,
      "Ġ(!": 7870,
      "ĠMill": 7871,
      "ptive": 7872,
      "Ġ33": 7873,
      "Ġsizes": 7874,
      "ĠFederal": 7875,
      "oving": 7876,
      "ĠConstitution": 7877,
      "rating": 7878,
      "Ġneuro": 7879,
      "ymbol": 7880,
      "Ġconstantly": 7881,
      "mathbb": 7882,
      "Count": 7883,
      "how": 7884,
      "Ġ(\"": 7885,
      "ĠDel": 7886,
      "Ġvisiting": 7887,
      "Ġindependence": 7888,
      "ĠJavaScript": 7889,
      "Ġtrouble": 7890,
      "Ġaest": 7891,
      "ĠLabor": 7892,
      "Input": 7893,
      "Path": 7894,
      "dig": 7895,
      "ĠCost": 7896,
      "ĠRemember": 7897,
      "Ġaccum": 7898,
      "Ġcovers": 7899,
      "Ġdelay": 7900,
      "Ġbiases": 7901,
      "Ġreflecting": 7902,
      "Ġsoldiers": 7903,
      "DB": 7904,
      "HER": 7905,
      "eric": 7906,
      "oles": 7907,
      "lder": 7908,
      "outs": 7909,
      "ĠLand": 7910,
      "Ġgained": 7911,
      "ĠTwitter": 7912,
      "itative": 7913,
      "rooms": 7914,
      "ĠCN": 7915,
      "Ġ250": 7916,
      "Ġclock": 7917,
      "Ġelection": 7918,
      "Ġboat": 7919,
      "Ġsupposed": 7920,
      "EG": 7921,
      "tem": 7922,
      "Ġoutdoor": 7923,
      "fulness": 7924,
      "conomic": 7925,
      "Ġprecision": 7926,
      "Ġhousing": 7927,
      "ĠAcademy": 7928,
      "erior": 7929,
      "Ġdecade": 7930,
      "Ġtechnological": 7931,
      "Ġgrows": 7932,
      "Ġpackage": 7933,
      "Ġremarkable": 7934,
      "unched": 7935,
      "Ġneither": 7936,
      "Ġworse": 7937,
      "ĠExpl": 7938,
      "Ġsquares": 7939,
      "ĠâĪļ": 7940,
      "Ġphenomena": 7941,
      "Pre": 7942,
      "Ġtoler": 7943,
      "Ġrub": 7944,
      "Ġsomewhat": 7945,
      "Ġobjectives": 7946,
      "62": 7947,
      "ĠÐ": 7948,
      "query": 7949,
      "Ġjson": 7950,
      "Ġconsideration": 7951,
      "Ġvisited": 7952,
      "Ġproductivity": 7953,
      "Ġbroader": 7954,
      "Ġwestern": 7955,
      "Ġgallons": 7956,
      "Sum": 7957,
      "Ġpit": 7958,
      "Ġgap": 7959,
      "ĠIP": 7960,
      "ĠBudd": 7961,
      "Ġchoosing": 7962,
      "fortunately": 7963,
      "Ġbucket": 7964,
      "Ev": 7965,
      "iated": 7966,
      "iture": 7967,
      "ĠNULL": 7968,
      "ĠThose": 7969,
      "Ġoccasion": 7970,
      "Ġattempts": 7971,
      "ĠÂ£": 7972,
      "\">": 7973,
      "Ġfellow": 7974,
      "ouble": 7975,
      "Ġcriteria": 7976,
      "Ġimplemented": 7977,
      "Furthermore": 7978,
      "fish": 7979,
      "Ġdelivery": 7980,
      "Ġdifficulty": 7981,
      "Ġinspiration": 7982,
      "Ġemphasis": 7983,
      "Ġconj": 7984,
      "Ġacts": 7985,
      "----------------": 7986,
      "ka": 7987,
      "noon": 7988,
      "istent": 7989,
      "ĠMa": 7990,
      "roud": 7991,
      "Ġentr": 7992,
      "Ġminim": 7993,
      "ĠValley": 7994,
      "Ġpreserving": 7995,
      "ĠBob": 7996,
      "ĠDec": 7997,
      "Ġguests": 7998,
      "Ġincorrect": 7999,
      "Ġzone": 8000,
      "ĠUser": 8001,
      "Ġuniversal": 8002,
      "Ġcontemporary": 8003,
      "Ġbind": 8004,
      "ĠInitial": 8005,
      "ega": 8006,
      "args": 8007,
      "Ġrealized": 8008,
      "Ġsitting": 8009,
      "Ġhousehold": 8010,
      "Ġfrequent": 8011,
      "Ġestablishing": 8012,
      "02": 8013,
      "Ġalert": 8014,
      "ĠRewrite": 8015,
      "Ġarrest": 8016,
      "Ġfrust": 8017,
      "Ġmamm": 8018,
      "ĠTur": 8019,
      "ada": 8020,
      "output": 8021,
      "Ġevaluation": 8022,
      ".|": 8023,
      "effect": 8024,
      "Ġwidespread": 8025,
      "ĠĠĠĠĠĠĠĠĠ": 8026,
      "ogram": 8027,
      "ĠNorthern": 8028,
      "asters": 8029,
      "Ġcurious": 8030,
      "Ġchest": 8031,
      "Ġorganisms": 8032,
      "Ġcomputers": 8033,
      "03": 8034,
      "Ġ55": 8035,
      "Ġcoin": 8036,
      "ĠColumb": 8037,
      "}.": 8038,
      "Ġshell": 8039,
      "reshold": 8040,
      "Ġvulnerable": 8041,
      "-\\": 8042,
      "Ġchol": 8043,
      "Ġring": 8044,
      "Ġmarried": 8045,
      "txt": 8046,
      "etches": 8047,
      "Ġflag": 8048,
      "Ġseparated": 8049,
      "True": 8050,
      "Ġstyles": 8051,
      "Man": 8052,
      "Ob": 8053,
      "inity": 8054,
      "ĠTheore": 8055,
      "ella": 8056,
      "Ġevil": 8057,
      "Ġflour": 8058,
      "Ġplanets": 8059,
      "Ġcardi": 8060,
      "Ġhighlighting": 8061,
      "vals": 8062,
      "Ġpump": 8063,
      "client": 8064,
      "Ġquarter": 8065,
      "Ġfacility": 8066,
      "Ġcoordinates": 8067,
      "Ġtroops": 8068,
      "Request": 8069,
      "Ġbeach": 8070,
      "umps": 8071,
      "Ġchocol": 8072,
      "ĠLast": 8073,
      "Ġmetab": 8074,
      "Ġelectron": 8075,
      "Ġbranch": 8076,
      "72": 8077,
      "ĠTV": 8078,
      "ĠRD": 8079,
      "Ġargue": 8080,
      "Ġfingers": 8081,
      "Ġkitchen": 8082,
      "oat": 8083,
      "oric": 8084,
      "stud": 8085,
      "Ġtrains": 8086,
      "Ġvariation": 8087,
      "Ġcalculation": 8088,
      "Ġlands": 8089,
      "lishing": 8090,
      "Ġrectangle": 8091,
      "Ġmanifest": 8092,
      "Ġselling": 8093,
      "Ġblocks": 8094,
      "Ġcombining": 8095,
      "Ġreaches": 8096,
      "Ġconclusions": 8097,
      "Ġcounts": 8098,
      "Ġrealistic": 8099,
      "Class": 8100,
      "Array": 8101,
      "Reader": 8102,
      "driv": 8103,
      "she": 8104,
      "ittle": 8105,
      "ĠAustralian": 8106,
      "ĠOffice": 8107,
      "Ġaccomplish": 8108,
      "ĠEnvironmental": 8109,
      "Ġfalls": 8110,
      "ĠCur": 8111,
      "Ġintake": 8112,
      "ĠLeg": 8113,
      "Ġextension": 8114,
      "grade": 8115,
      "ĠCanadian": 8116,
      "Ġinstruments": 8117,
      "Alex": 8118,
      "just": 8119,
      "Ġtelling": 8120,
      "Ġtherap": 8121,
      "ato": 8122,
      "atric": 8123,
      "Ġpace": 8124,
      "otten": 8125,
      "ĠEnd": 8126,
      "Ġcharacterized": 8127,
      "Ġgradually": 8128,
      "Ġthousand": 8129,
      "Ġsavings": 8130,
      "van": 8131,
      "ĠPass": 8132,
      "Ġminds": 8133,
      "Ġmedication": 8134,
      "Ġsuspect": 8135,
      "Ġdividing": 8136,
      "Ġfighting": 8137,
      "Ġinsects": 8138,
      "ĠMo": 8139,
      "Ġshorter": 8140,
      "izabeth": 8141,
      "ĠChicago": 8142,
      "Ġ1999": 8143,
      ".;": 8144,
      "Person": 8145,
      "wing": 8146,
      "onym": 8147,
      "Ġ${": 8148,
      "Ġverte": 8149,
      "ĠGrand": 8150,
      "ĠFlorida": 8151,
      ")`": 8152,
      "SV": 8153,
      "ĠPan": 8154,
      "ĠPsych": 8155,
      "ĠNations": 8156,
      "inking": 8157,
      "Ġmeditation": 8158,
      "Ġstrategic": 8159,
      "ĠNature": 8160,
      "Ġuniform": 8161,
      "Ġdigits": 8162,
      "ĠDesign": 8163,
      "Ġimagination": 8164,
      "Ġchannels": 8165,
      "Ġexcitement": 8166,
      "Me": 8167,
      "green": 8168,
      "Ġsick": 8169,
      "ĠHome": 8170,
      "oky": 8171,
      "necess": 8172,
      "Ġpresents": 8173,
      "ĠGeorg": 8174,
      "Ġjoined": 8175,
      "etermine": 8176,
      "Hello": 8177,
      "{(": 8178,
      "rot": 8179,
      "ĠOl": 8180,
      "Ġtexts": 8181,
      "ĠAnalysis": 8182,
      "scale": 8183,
      "Ġfourth": 8184,
      "Ġobservation": 8185,
      "American": 8186,
      "Ġcul": 8187,
      "Ġthy": 8188,
      "Ġnine": 8189,
      "ultane": 8190,
      "onday": 8191,
      "Ġreads": 8192,
      "ĠAsk": 8193,
      "Ġ95": 8194,
      "Ġsensory": 8195,
      "ĠFrank": 8196,
      "Ġlaid": 8197,
      "Ġkingdom": 8198,
      "Ġadministration": 8199,
      "}<|": 8200,
      "ĠTuesday": 8201,
      "riangle": 8202,
      "ĠWomen": 8203,
      "Ġvariance": 8204,
      "Thank": 8205,
      "Ġfactorial": 8206,
      "check": 8207,
      "76": 8208,
      "='": 8209,
      "aud": 8210,
      "Ġcab": 8211,
      "sey": 8212,
      "ĠExam": 8213,
      "kins": 8214,
      "Ġton": 8215,
      "ĠLike": 8216,
      "cium": 8217,
      "Ġexercises": 8218,
      "instein": 8219,
      "Ġmeals": 8220,
      "Ġmainly": 8221,
      "Ġincredible": 8222,
      "98": 8223,
      "}(": 8224,
      "ĠFin": 8225,
      "Ġclub": 8226,
      "ordinary": 8227,
      "Ġdescriptive": 8228,
      "Ġgreenhouse": 8229,
      "Ġboxes": 8230,
      "Ġdenom": 8231,
      "Ġsuffering": 8232,
      "Ġenemy": 8233,
      "cyclopedia": 8234,
      "ĠCast": 8235,
      "Ġintensity": 8236,
      "Ġdefic": 8237,
      "Ġdifferential": 8238,
      "Ġmenu": 8239,
      "Ġdebt": 8240,
      "Ġfurn": 8241,
      "Ġregulations": 8242,
      "Ġlibraries": 8243,
      "Ġglasses": 8244,
      "message": 8245,
      "hether": 8246,
      "ĠFact": 8247,
      "Ġcompens": 8248,
      "ĠCatholic": 8249,
      "rid": 8250,
      "zy": 8251,
      "Ġped": 8252,
      "ĉĉĉ": 8253,
      "Ġmanufacturing": 8254,
      "%,": 8255,
      ":]": 8256,
      "Ġhaven": 8257,
      "lower": 8258,
      "Ġ1980": 8259,
      "Ġconfirm": 8260,
      "Ġmusical": 8261,
      "Ġsupplement": 8262,
      "ĠControl": 8263,
      "Ġconstraints": 8264,
      "Ġwal": 8265,
      "Ġwhatever": 8266,
      "ĠPot": 8267,
      "Ġabund": 8268,
      "Ġscul": 8269,
      "Ġpersu": 8270,
      "Ġlisted": 8271,
      "Ġcountless": 8272,
      "Ġbiggest": 8273,
      "yal": 8274,
      "Ġmine": 8275,
      "heric": 8276,
      "Ġcomposed": 8277,
      "Ġgrid": 8278,
      "Ġputting": 8279,
      "Ġsister": 8280,
      "eness": 8281,
      "stra": 8282,
      ".\"},\"": 8283,
      "Ġcycl": 8284,
      "Ġbullet": 8285,
      "Ġhung": 8286,
      "Then": 8287,
      "Ġcalling": 8288,
      "Example": 8289,
      "Ġbasket": 8290,
      "osc": 8291,
      "Ġchair": 8292,
      "Ġenables": 8293,
      "exec": 8294,
      "even": 8295,
      "Ġsecondary": 8296,
      ")]": 8297,
      "card": 8298,
      "nov": 8299,
      "ita": 8300,
      "ication": 8301,
      "eli": 8302,
      "ograp": 8303,
      "Ġfounded": 8304,
      "Ġphoto": 8305,
      "connected": 8306,
      "ixture": 8307,
      "ĠFacebook": 8308,
      "300": 8309,
      "rary": 8310,
      "Ġworst": 8311,
      "ĠRights": 8312,
      "ĠRevolution": 8313,
      "Ġfantasy": 8314,
      "Ġsculpt": 8315,
      "run": 8316,
      "ref": 8317,
      "ener": 8318,
      "Ġwra": 8319,
      "Ġtom": 8320,
      "ascript": 8321,
      "uts": 8322,
      "ĠCap": 8323,
      "ĠFort": 8324,
      "Ke": 8325,
      "Ġtons": 8326,
      "Ġkeeps": 8327,
      "Ġbreathing": 8328,
      "gers": 8329,
      "ugh": 8330,
      "Ġfav": 8331,
      "edge": 8332,
      "ĠCamp": 8333,
      "ĠGard": 8334,
      "ĠOcean": 8335,
      "Ġcompact": 8336,
      "Ġconsumers": 8337,
      "Ġregardless": 8338,
      "Ġdramatic": 8339,
      "hire": 8340,
      "child": 8341,
      "Ġye": 8342,
      "ĠAp": 8343,
      "Ġusual": 8344,
      "Ġseat": 8345,
      "ĠJane": 8346,
      "Ġappeal": 8347,
      "Ġrevealing": 8348,
      "Ġmagnitude": 8349,
      "javascript": 8350,
      "igm": 8351,
      "ĠMethod": 8352,
      "ĠLog": 8353,
      "Ġdesires": 8354,
      "Ġmetrics": 8355,
      "esterol": 8356,
      "====": 8357,
      "Ġvocabulary": 8358,
      "uity": 8359,
      "Ġuncon": 8360,
      "ruption": 8361,
      "Ġsport": 8362,
      "Ġensures": 8363,
      "Ġemployed": 8364,
      "Ġtendency": 8365,
      "Ġble": 8366,
      "Ġdisrupt": 8367,
      "Ġteen": 8368,
      "Ġbuff": 8369,
      "Ġeditor": 8370,
      "ĠAny": 8371,
      "Ġoperate": 8372,
      "Ġpsychology": 8373,
      "IG": 8374,
      "Ġmile": 8375,
      "Ġdistur": 8376,
      "Ġinstruct": 8377,
      "Ġdirections": 8378,
      "found": 8379,
      "miss": 8380,
      "ayer": 8381,
      "Ġjump": 8382,
      "Ġinflamm": 8383,
      "Ġartistic": 8384,
      "Ġafternoon": 8385,
      "oids": 8386,
      "ĠExper": 8387,
      "Ġlasting": 8388,
      "Ġconsumer": 8389,
      "Ġrivers": 8390,
      "oys": 8391,
      "ĠSci": 8392,
      "Ġvow": 8393,
      "Ġhappening": 8394,
      "Ġreceiving": 8395,
      "Ġsearching": 8396,
      "Ġinitiatives": 8397,
      "ĠMer": 8398,
      "Ġapple": 8399,
      "Ġfinite": 8400,
      "ropical": 8401,
      "Ġconstructed": 8402,
      "Ġmolecules": 8403,
      "usiness": 8404,
      "Ġstroke": 8405,
      "una": 8406,
      "Ġ\\).": 8407,
      "Ġcream": 8408,
      "axis": 8409,
      "ername": 8410,
      "++)": 8411,
      "ĠMusic": 8412,
      "Ġthreads": 8413,
      "Ġchannel": 8414,
      "Ġpregnancy": 8415,
      "CR": 8416,
      "page": 8417,
      "ĠJe": 8418,
      "ĠJud": 8419,
      "Ġrepair": 8420,
      "Ġinputs": 8421,
      "Ġprevention": 8422,
      "Ġbelieves": 8423,
      "mers": 8424,
      "soft": 8425,
      "Ġarise": 8426,
      "Ġcenters": 8427,
      "Ġreveals": 8428,
      "Ġstrike": 8429,
      "Ġscenarios": 8430,
      "Ġbones": 8431,
      "allow": 8432,
      "Ġjudge": 8433,
      "Ġmistakes": 8434,
      ")|": 8435,
      "+\\": 8436,
      "reaching": 8437,
      "icide": 8438,
      "irty": 8439,
      "Ġnotable": 8440,
      "Ġintersect": 8441,
      "Ġpreserve": 8442,
      "Ġbias": 8443,
      "Äģ": 8444,
      "Ġos": 8445,
      "ĠVer": 8446,
      "Ġblur": 8447,
      "Ġended": 8448,
      "ĠProv": 8449,
      "Ġpriorities": 8450,
      "Ġreflects": 8451,
      "Ġreplacement": 8452,
      "ĠMoon": 8453,
      "ĠPers": 8454,
      "Ġinterior": 8455,
      ".\"<|": 8456,
      "valu": 8457,
      "Ġflexibility": 8458,
      "Ġfertil": 8459,
      "Ġtag": 8460,
      "Ġpy": 8461,
      "Ġblow": 8462,
      "lements": 8463,
      "lections": 8464,
      "ĠTreat": 8465,
      "Ġconventional": 8466,
      "Ġabuse": 8467,
      "ĠLibrary": 8468,
      "ĠProvide": 8469,
      "strings": 8470,
      "Ġisolated": 8471,
      "Ġconsciousness": 8472,
      "lets": 8473,
      "ĠWed": 8474,
      "Ġhearts": 8475,
      "forward": 8476,
      "Ġlake": 8477,
      "ĠTHE": 8478,
      "Ġquart": 8479,
      "_{\\": 8480,
      "Ġdestruction": 8481,
      "Ġmedications": 8482,
      "None": 8483,
      "tic": 8484,
      "Ġstunning": 8485,
      "Ġcomplain": 8486,
      "Ġhem": 8487,
      "Ġprincipal": 8488,
      "Ġagreed": 8489,
      "Ġextend": 8490,
      "Ġtriang": 8491,
      "Ġaudio": 8492,
      "ĠCommit": 8493,
      "Ġdeaths": 8494,
      "Ġfitness": 8495,
      "Ġhash": 8496,
      "Ġrelief": 8497,
      "Ġamid": 8498,
      "ĠAmazon": 8499,
      "front": 8500,
      "uine": 8501,
      "ĠSuch": 8502,
      "ĠPop": 8503,
      "Ġuniversity": 8504,
      "username": 8505,
      "Ġtransmission": 8506,
      "Ġ185": 8507,
      "Ġdrives": 8508,
      "Ġ1970": 8509,
      "Ġsymbols": 8510,
      "Ġsubsequent": 8511,
      "96": 8512,
      "Ġstations": 8513,
      "Ġdish": 8514,
      "Ġsphere": 8515,
      "Where": 8516,
      "bered": 8517,
      "Ġunp": 8518,
      "Ġscientist": 8519,
      ")\\": 8520,
      "sis": 8521,
      "uct": 8522,
      "through": 8523,
      "Ġneck": 8524,
      "Ġfinished": 8525,
      "Ġessentially": 8526,
      "Ġordered": 8527,
      "join": 8528,
      "Ġaward": 8529,
      "eras": 8530,
      "aning": 8531,
      "Ġhint": 8532,
      "ĠTim": 8533,
      "ifferent": 8534,
      "emic": 8535,
      "Ġleaf": 8536,
      "ĠLab": 8537,
      "ĠKnow": 8538,
      "Ġdeposit": 8539,
      "nowned": 8540,
      "Trans": 8541,
      "ĠBig": 8542,
      "ĠWall": 8543,
      "Ġclar": 8544,
      "Ġscope": 8545,
      "Ġacres": 8546,
      "backs": 8547,
      "IM": 8548,
      "erals": 8549,
      "ĠUt": 8550,
      "aware": 8551,
      "overrightarrow": 8552,
      "Ġwarning": 8553,
      "Ġillum": 8554,
      "Ġbattery": 8555,
      "Ġtheoretical": 8556,
      "=\\": 8557,
      "ĠNob": 8558,
      "ĠStat": 8559,
      "Ġdemonstrated": 8560,
      "Under": 8561,
      "Ġvel": 8562,
      "Ġunnecess": 8563,
      "ĠStar": 8564,
      "Ġeleg": 8565,
      "Ġpanel": 8566,
      "itudes": 8567,
      "Ã¶": 8568,
      "Ġexclusive": 8569,
      "ĠPub": 8570,
      "Ġritual": 8571,
      "ĠEu": 8572,
      "ipher": 8573,
      "written": 8574,
      "Ġsurprise": 8575,
      "IP": 8576,
      "aser": 8577,
      "Ġru": 8578,
      "ĠFurthermore": 8579,
      "Ġholes": 8580,
      "haust": 8581,
      "illa": 8582,
      "Ġclouds": 8583,
      "Ġconnecting": 8584,
      "Ġwise": 8585,
      "assert": 8586,
      "Ġ1960": 8587,
      "Ġsock": 8588,
      "ĠForest": 8589,
      "Dear": 8590,
      "Ġaer": 8591,
      "Ġmes": 8592,
      "Ġrevers": 8593,
      "Ġsmoke": 8594,
      "Ġdefend": 8595,
      "Ġcalories": 8596,
      "Ġsummar": 8597,
      "Ġintriguing": 8598,
      "inth": 8599,
      "ĠRad": 8600,
      "oston": 8601,
      "ĠStory": 8602,
      "ĠYes": 8603,
      "puter": 8604,
      "Ġdescribing": 8605,
      "Ġvolcan": 8606,
      "Ġvisualization": 8607,
      "Ġenthusi": 8608,
      "Aut": 8609,
      "UN": 8610,
      "icular": 8611,
      "ĠCr": 8612,
      "ĠWil": 8613,
      "ĠDise": 8614,
      "Ġresolve": 8615,
      "Ġheritage": 8616,
      "Ġvectors": 8617,
      "Content": 8618,
      "Ġkidney": 8619,
      "Ġfossil": 8620,
      ")}": 8621,
      "label": 8622,
      "Ġcourage": 8623,
      "ĠST": 8624,
      "Ġvs": 8625,
      "plate": 8626,
      "Ġplus": 8627,
      "Ġfinish": 8628,
      "ĠâĨ": 8629,
      "Ġdemonstrates": 8630,
      "Ġextraordinary": 8631,
      "Ġadopted": 8632,
      "ĠTheorem": 8633,
      "ĠSk": 8634,
      "abil": 8635,
      "Ġmeets": 8636,
      "rency": 8637,
      "Ġsimultane": 8638,
      "Ġparagraphs": 8639,
      "Ġhotel": 8640,
      "Ġdict": 8641,
      "ieval": 8642,
      "Ġliterary": 8643,
      "Ġroutes": 8644,
      "Fact": 8645,
      "ih": 8646,
      "Ġlots": 8647,
      "inson": 8648,
      "Ġassociation": 8649,
      "ship": 8650,
      "isp": 8651,
      "Ġfract": 8652,
      "Ġstom": 8653,
      "ĠWord": 8654,
      "Ġsatell": 8655,
      "Ġevaluating": 8656,
      "ima": 8657,
      "riers": 8658,
      "Ġhealing": 8659,
      "ounding": 8660,
      "Ġbreaks": 8661,
      "Ġcontributing": 8662,
      "('/": 8663,
      "Ġtargeted": 8664,
      "Ġlaunched": 8665,
      "Ġclaimed": 8666,
      "Ġsilence": 8667,
      "Ġsteel": 8668,
      "Ġconstitution": 8669,
      "Ġfetch": 8670,
      "rous": 8671,
      "Ġapps": 8672,
      "forest": 8673,
      "Ġlongest": 8674,
      "Start": 8675,
      "ĠJohnson": 8676,
      "TML": 8677,
      "Ġoverwhelming": 8678,
      "names": 8679,
      "Ġspl": 8680,
      "oral": 8681,
      "Ġmac": 8682,
      "ĠAS": 8683,
      "terior": 8684,
      "ĠNov": 8685,
      "ĠNatural": 8686,
      "Ġtwenty": 8687,
      "Ġdelve": 8688,
      "Ġlowest": 8689,
      "Ġproposal": 8690,
      "Ġcivilization": 8691,
      "float": 8692,
      "Ġcomprehension": 8693,
      "DP": 8694,
      "Message": 8695,
      "Ġhat": 8696,
      "irs": 8697,
      "ĠAge": 8698,
      "quit": 8699,
      "ailable": 8700,
      "Ġassigned": 8701,
      "Ġdefense": 8702,
      "Ġ85": 8703,
      "ĠPrint": 8704,
      "Ġmotivation": 8705,
      "mid": 8706,
      "Ġpiv": 8707,
      "Ġlosing": 8708,
      "ilon": 8709,
      "omal": 8710,
      "amount": 8711,
      "Ġembra": 8712,
      "connection": 8713,
      "Ġfocuses": 8714,
      "ĠScient": 8715,
      "ĠBet": 8716,
      "iece": 8717,
      "Ġcoins": 8718,
      "Ġsuggesting": 8719,
      "apped": 8720,
      "style": 8721,
      "endar": 8722,
      "ĠLook": 8723,
      "uality": 8724,
      "Ġflaws": 8725,
      "Ġslope": 8726,
      "ĠOnly": 8727,
      "nesday": 8728,
      "Ġvessels": 8729,
      "ql": 8730,
      "Ġtens": 8731,
      "Ġpapers": 8732,
      "Ġcompr": 8733,
      "Ġampl": 8734,
      "Ġcorn": 8735,
      "scious": 8736,
      "Which": 8737,
      "Ġcaptured": 8738,
      "Ġefficiently": 8739,
      "ĠAngel": 8740,
      "Ġcompassion": 8741,
      "such": 8742,
      "ĠTimes": 8743,
      "opath": 8744,
      "Ġune": 8745,
      "Ġraises": 8746,
      "Ġpayment": 8747,
      "Ġvictims": 8748,
      "Ġvertical": 8749,
      "04": 8750,
      "Ġtack": 8751,
      "seen": 8752,
      "ourse": 8753,
      "neys": 8754,
      "Ġthank": 8755,
      "Ġclassical": 8756,
      "ĠProfessor": 8757,
      "Ġdiscrimination": 8758,
      "84": 8759,
      "800": 8760,
      "oices": 8761,
      "Ġtorn": 8762,
      "Ġinherent": 8763,
      "rovers": 8764,
      "Ġhier": 8765,
      "Ġupload": 8766,
      "Ġenforce": 8767,
      "Ġintervals": 8768,
      "pson": 8769,
      "Ġexperiencing": 8770,
      "Ġnumerical": 8771,
      "inci": 8772,
      "Ġliver": 8773,
      "rand": 8774,
      "Ġnotion": 8775,
      "Ġcomprom": 8776,
      "Ġcontributed": 8777,
      "Ġtracking": 8778,
      "Ġmerge": 8779,
      "Ġwelcome": 8780,
      "(),": 8781,
      "mal": 8782,
      "wed": 8783,
      "phony": 8784,
      "insert": 8785,
      "unday": 8786,
      "clear": 8787,
      "Ġburning": 8788,
      "Ġinstitution": 8789,
      "Ġoral": 8790,
      "opic": 8791,
      "ĠWrit": 8792,
      "Stack": 8793,
      "ĠStudies": 8794,
      "Ġiconic": 8795,
      "Rep": 8796,
      "Ġborder": 8797,
      "Ġcham": 8798,
      "ĠWik": 8799,
      "Ġflavor": 8800,
      "Ġentity": 8801,
      "Ġinfinity": 8802,
      "?âĢĿ": 8803,
      "Rec": 8804,
      "icians": 8805,
      "Ġreduces": 8806,
      "Ġlegend": 8807,
      "\"\"": 8808,
      "Ġlens": 8809,
      "ĠHy": 8810,
      "Ġshock": 8811,
      "Ġoutline": 8812,
      "Ġmembr": 8813,
      "Ġcharacteristic": 8814,
      "Ġprinting": 8815,
      "Ġcombine": 8816,
      "Ġcontained": 8817,
      "Ġsilver": 8818,
      "Ġresponding": 8819,
      "Ġordinary": 8820,
      "Ġcounsel": 8821,
      "ested": 8822,
      "ĠNext": 8823,
      "Ġscar": 8824,
      "Ġdetection": 8825,
      "Ġparticipation": 8826,
      "Ġmagnetic": 8827,
      "79": 8828,
      "ĠÏ": 8829,
      "Ġfu": 8830,
      "Ġbes": 8831,
      "icul": 8832,
      "antly": 8833,
      "Ġcomparing": 8834,
      "Ġintervention": 8835,
      "Ġgenuine": 8836,
      "Ġmoderate": 8837,
      "Ġmemorable": 8838,
      "Ġproud": 8839,
      "Ġnice": 8840,
      "ĠSaf": 8841,
      "perty": 8842,
      "Ġevolved": 8843,
      "Ġinitiative": 8844,
      "Ġadministr": 8845,
      "CE": 8846,
      "DS": 8847,
      "Âł": 8848,
      "Ġsor": 8849,
      "Ġflying": 8850,
      "ĠTer": 8851,
      "igma": 8852,
      "amma": 8853,
      "ĠCare": 8854,
      "oga": 8855,
      "Ġdemands": 8856,
      "Ġreviews": 8857,
      "Ġdriver": 8858,
      "olar": 8859,
      "Ġdioxide": 8860,
      "Ġconfusion": 8861,
      "ĠScott": 8862,
      "ĠColor": 8863,
      "Ġautomatically": 8864,
      "IL": 8865,
      "vector": 8866,
      "ĠHave": 8867,
      "Ġscent": 8868,
      "Ġrelate": 8869,
      "Ġthanks": 8870,
      "Ġbackstory": 8871,
      "Ġpurs": 8872,
      "Ġabsence": 8873,
      "ĠUSA": 8874,
      "Ġassumption": 8875,
      "hma": 8876,
      "spec": 8877,
      "Ġcas": 8878,
      "ĠSing": 8879,
      "ĠStation": 8880,
      "Ġgathering": 8881,
      "Ġcoastal": 8882,
      "Index": 8883,
      "}^{": 8884,
      "Ġtough": 8885,
      "Ġinhib": 8886,
      "Ġstuff": 8887,
      "ĠCreat": 8888,
      "ĠMult": 8889,
      "Ġcohes": 8890,
      "Ġcombat": 8891,
      "Ġimmun": 8892,
      "Ġmarks": 8893,
      "Ġ1998": 8894,
      "ĠGlobal": 8895,
      "Ġcircles": 8896,
      "Ġrecursive": 8897,
      "ga": 8898,
      "natural": 8899,
      "powered": 8900,
      "idential": 8901,
      "ĠShow": 8902,
      "irds": 8903,
      "Ġorient": 8904,
      "ĠJul": 8905,
      "Ġcounty": 8906,
      "Ġinfected": 8907,
      "Ġcrack": 8908,
      "Ġriv": 8909,
      "ĠAlice": 8910,
      "Ġsad": 8911,
      "Ġprinted": 8912,
      "Ġcontrols": 8913,
      "Ġdrinks": 8914,
      "Ġaccordingly": 8915,
      "Ġlaboratory": 8916,
      "Ġcholesterol": 8917,
      "Ġunnecessary": 8918,
      "fol": 8919,
      "Ġconqu": 8920,
      "Ġchrom": 8921,
      "Ġinstalled": 8922,
      "Ġbeliefs": 8923,
      "86": 8924,
      "Ass": 8925,
      "itt": 8926,
      "Ġunion": 8927,
      "Ġamazing": 8928,
      "Ġattitude": 8929,
      "Ġstrengthen": 8930,
      "ĠIII": 8931,
      "Ġsongs": 8932,
      "Ġincredibly": 8933,
      "Ġconvenient": 8934,
      "EY": 8935,
      "gence": 8936,
      "orient": 8937,
      "Ġlux": 8938,
      "ĠEll": 8939,
      "ĠNon": 8940,
      "Ġrepet": 8941,
      "Ġattractions": 8942,
      "brid": 8943,
      "Ġcontribution": 8944,
      "ĠSimilarly": 8945,
      "Ġsaved": 8946,
      "Ġofficers": 8947,
      "Par": 8948,
      "RA": 8949,
      "kay": 8950,
      "Ã¼": 8951,
      "icious": 8952,
      "ĠJoseph": 8953,
      "ĠLy": 8954,
      "ĠIndians": 8955,
      "Ġpriority": 8956,
      "Ġdinner": 8957,
      "Server": 8958,
      "ĠTor": 8959,
      "Ġyes": 8960,
      "elesc": 8961,
      "ĠMel": 8962,
      "ĠPenn": 8963,
      "Ġpermanent": 8964,
      "okyo": 8965,
      "Pe": 8966,
      "ĠRoyal": 8967,
      "ĠLiter": 8968,
      "Ġoblig": 8969,
      "ierce": 8970,
      "Ġdeclared": 8971,
      "Eng": 8972,
      "Ġreferences": 8973,
      "ĠCult": 8974,
      "never": 8975,
      "process": 8976,
      "Ġdense": 8977,
      "Ġdrought": 8978,
      "Ġorbit": 8979,
      "Ġlighting": 8980,
      "ĠSpain": 8981,
      "Ġ1997": 8982,
      "Ġsyndrome": 8983,
      "instance": 8984,
      "Ġkilometers": 8985,
      "IO": 8986,
      "aver": 8987,
      "Ġwww": 8988,
      "utch": 8989,
      "chron": 8990,
      "Ġ34": 8991,
      "ports": 8992,
      "Ġfestival": 8993,
      "Ġdisplays": 8994,
      "power": 8995,
      "Ġease": 8996,
      "apse": 8997,
      "Ġtrick": 8998,
      "Ġresulted": 8999,
      "bridge": 9000,
      "Ġdamaged": 9001,
      "Ġadjacent": 9002,
      "irectory": 9003,
      "ĠModel": 9004,
      "Ġpreparation": 9005,
      "sort": 9006,
      "heimer": 9007,
      "Ġcout": 9008,
      "ustain": 9009,
      "Ġexped": 9010,
      "Ġprofile": 9011,
      "Ġcontinuing": 9012,
      "Ġsuffer": 9013,
      "MM": 9014,
      "Med": 9015,
      "erb": 9016,
      "Ġmild": 9017,
      "aded": 9018,
      "ĠFund": 9019,
      "Ġskilled": 9020,
      "Ġtimeline": 9021,
      "bar": 9022,
      "zil": 9023,
      "}_": 9024,
      "ĠBill": 9025,
      "ĠFibonacci": 9026,
      "Ġspoke": 9027,
      "Ġrecover": 9028,
      "Ġsigned": 9029,
      "Ġedit": 9030,
      "Ġissued": 9031,
      "Ġcircul": 9032,
      "Ġexcessive": 9033,
      "ĠAND": 9034,
      "Ġpin": 9035,
      "Ġfiber": 9036,
      "Ġmodeling": 9037,
      "Ġsilent": 9038,
      "Ġisolation": 9039,
      "Ġfoster": 9040,
      "Ġschedul": 9041,
      "Ġtor": 9042,
      "oub": 9043,
      "Ġoverview": 9044,
      "Ġ2020": 9045,
      "Ġsubstitute": 9046,
      "Ġplanned": 9047,
      "Ġemerged": 9048,
      "Ġthreats": 9049,
      "driven": 9050,
      "Every": 9051,
      "ran": 9052,
      "send": 9053,
      "Ġdx": 9054,
      "aylor": 9055,
      "Ġrust": 9056,
      "Ġendless": 9057,
      "Ġanalog": 9058,
      "Ġaccurately": 9059,
      "ĠCurrent": 9060,
      "open": 9061,
      "ĠOF": 9062,
      "Ġundert": 9063,
      "Ġproven": 9064,
      "ĠCancer": 9065,
      "Ġlengths": 9066,
      "Ġsurprising": 9067,
      "Ġbought": 9068,
      "icon": 9069,
      "ĠDet": 9070,
      "auses": 9071,
      "Ġseasonal": 9072,
      "sit": 9073,
      "Ġorange": 9074,
      "acc": 9075,
      "Ġplenty": 9076,
      "âĢĻ.": 9077,
      "Ġrose": 9078,
      "Ġequipped": 9079,
      "ĠColl": 9080,
      "Ġavoiding": 9081,
      "Ġannounced": 9082,
      "ĠAbout": 9083,
      "Ġstomach": 9084,
      "!)": 9085,
      ">>": 9086,
      "since": 9087,
      "Ġshoot": 9088,
      "ĠDoes": 9089,
      "Ġfeat": 9090,
      "issance": 9091,
      "Ġdetermining": 9092,
      "Ġtempor": 9093,
      "Ġresonates": 9094,
      "omatic": 9095,
      "etts": 9096,
      "Ġproved": 9097,
      "Ġinvestigate": 9098,
      "Ġeliminate": 9099,
      "Ġreputation": 9100,
      "Ġpursue": 9101,
      "eenth": 9102,
      "total": 9103,
      "Ġ..": 9104,
      "Ġwider": 9105,
      "Ġfate": 9106,
      "util": 9107,
      "Ġusername": 9108,
      "plex": 9109,
      "achus": 9110,
      "Ġincident": 9111,
      "Ġguided": 9112,
      "Ġartifacts": 9113,
      "ĠSecurity": 9114,
      "Ġtied": 9115,
      "Ġrenowned": 9116,
      "archy": 9117,
      "graph": 9118,
      "Ġduration": 9119,
      "Ġforming": 9120,
      "azine": 9121,
      "ĠBlue": 9122,
      "####": 9123,
      "Ġfacilitate": 9124,
      "Ġretrieve": 9125,
      "Ġbare": 9126,
      "Ġmice": 9127,
      "etics": 9128,
      "Ġgiant": 9129,
      "Ġcompl": 9130,
      "ĠMach": 9131,
      "iah": 9132,
      "Ġsequences": 9133,
      "Ġcatal": 9134,
      "Ġadjustments": 9135,
      "Ġsale": 9136,
      "ĠSov": 9137,
      "Ġdeck": 9138,
      "ĠWould": 9139,
      "eps": 9140,
      "Ġcompetitive": 9141,
      "Ġmolecular": 9142,
      "Ġtact": 9143,
      "ĠExt": 9144,
      "plant": 9145,
      "Ġexamining": 9146,
      "price": 9147,
      "products": 9148,
      "Tw": 9149,
      "medi": 9150,
      "Ġincent": 9151,
      "Ġranges": 9152,
      "indu": 9153,
      "ervices": 9154,
      "Ġanswering": 9155,
      "Ġaddressed": 9156,
      "Ġweaknesses": 9157,
      "Ġeastern": 9158,
      "Hist": 9159,
      "Ġmerg": 9160,
      "etary": 9161,
      "Ġdeploy": 9162,
      "anda": 9163,
      "Ġsheet": 9164,
      "Ġencourages": 9165,
      "Even": 9166,
      "Title": 9167,
      "ĠSouthern": 9168,
      "Ġharmony": 9169,
      "Ġcandidate": 9170,
      "Ġnervous": 9171,
      "iginal": 9172,
      "Ġdishes": 9173,
      "Ġcharged": 9174,
      "Ġcapabilities": 9175,
      "Ġspecialized": 9176,
      "Ġoccurring": 9177,
      "ĠCaptain": 9178,
      "Def": 9179,
      "rd": 9180,
      "Ġhall": 9181,
      "oded": 9182,
      "inder": 9183,
      "Ġ37": 9184,
      "ools": 9185,
      "Ġcalcium": 9186,
      "Ġcalculating": 9187,
      "ĠCommittee": 9188,
      "reens": 9189,
      "ĠDu": 9190,
      "izz": 9191,
      "Ġdefines": 9192,
      "Ġedges": 9193,
      "Ġtemple": 9194,
      "Ġmultiplication": 9195,
      "elta": 9196,
      "Ġexecution": 9197,
      "Ġvictory": 9198,
      "';": 9199,
      "cpp": 9200,
      "kl": 9201,
      "Ġbrows": 9202,
      "Ġnan": 9203,
      "ocracy": 9204,
      "Ġmatches": 9205,
      "Ġfrequencies": 9206,
      "Ġemerging": 9207,
      "ĠIran": 9208,
      "Ġaxis": 9209,
      "Ġopinions": 9210,
      "Just": 9211,
      "Ġcater": 9212,
      "Ġmos": 9213,
      "ĠIll": 9214,
      "ĠNote": 9215,
      "common": 9216,
      "Ġflower": 9217,
      "Ġceremon": 9218,
      "08": 9219,
      "ĠBefore": 9220,
      "Ġperpet": 9221,
      "Ġevolve": 9222,
      "Ġinstances": 9223,
      "ĠConnect": 9224,
[...]
